{
  "version": "1.0",
  "truncation": null,
  "padding": null,
  "added_tokens": [
    {
      "id": 0,
      "content": "<s>",
      "single_word": false,
      "lstrip": false,
      "rstrip": false,
      "normalized": false,
      "special": true
    },
    {
      "id": 1,
      "content": "<pad>",
      "single_word": false,
      "lstrip": false,
      "rstrip": false,
      "normalized": false,
      "special": true
    },
    {
      "id": 2,
      "content": "</s>",
      "single_word": false,
      "lstrip": false,
      "rstrip": false,
      "normalized": false,
      "special": true
    },
    {
      "id": 3,
      "content": "<unk>",
      "single_word": false,
      "lstrip": false,
      "rstrip": false,
      "normalized": false,
      "special": true
    },
    {
      "id": 4,
      "content": "<mask>",
      "single_word": false,
      "lstrip": false,
      "rstrip": false,
      "normalized": false,
      "special": true
    },
    {
      "id": 50265,
      "content": "<|endoftext|>",
      "single_word": false,
      "lstrip": false,
      "rstrip": false,
      "normalized": false,
      "special": true
    }
  ],
  "normalizer": null,
  "pre_tokenizer": {
    "type": "ByteLevel",
    "add_prefix_space": false,
    "trim_offsets": true,
    "use_regex": true
  },
  "post_processor": {
    "type": "ByteLevel",
    "add_prefix_space": true,
    "trim_offsets": false,
    "use_regex": true
  },
  "decoder": {
    "type": "ByteLevel",
    "add_prefix_space": true,
    "trim_offsets": true,
    "use_regex": true
  },
  "model": {
    "type": "BPE",
    "dropout": null,
    "unk_token": null,
    "continuing_subword_prefix": "",
    "end_of_word_suffix": "",
    "fuse_unk": false,
    "byte_fallback": false,
    "ignore_merges": false,
    "vocab": {
      "<s>": 0,
      "<pad>": 1,
      "</s>": 2,
      "<unk>": 3,
      "<mask>": 4,
      "!": 5,
      "\"": 6,
      "#": 7,
      "$": 8,
      "%": 9,
      "&": 10,
      "'": 11,
      "(": 12,
      ")": 13,
      "*": 14,
      "+": 15,
      ",": 16,
      "-": 17,
      ".": 18,
      "/": 19,
      "0": 20,
      "1": 21,
      "2": 22,
      "3": 23,
      "4": 24,
      "5": 25,
      "6": 26,
      "7": 27,
      "8": 28,
      "9": 29,
      ":": 30,
      ";": 31,
      "<": 32,
      "=": 33,
      ">": 34,
      "?": 35,
      "@": 36,
      "A": 37,
      "B": 38,
      "C": 39,
      "D": 40,
      "E": 41,
      "F": 42,
      "G": 43,
      "H": 44,
      "I": 45,
      "J": 46,
      "K": 47,
      "L": 48,
      "M": 49,
      "N": 50,
      "O": 51,
      "P": 52,
      "Q": 53,
      "R": 54,
      "S": 55,
      "T": 56,
      "U": 57,
      "V": 58,
      "W": 59,
      "X": 60,
      "Y": 61,
      "Z": 62,
      "[": 63,
      "\\": 64,
      "]": 65,
      "^": 66,
      "_": 67,
      "`": 68,
      "a": 69,
      "b": 70,
      "c": 71,
      "d": 72,
      "e": 73,
      "f": 74,
      "g": 75,
      "h": 76,
      "i": 77,
      "j": 78,
      "k": 79,
      "l": 80,
      "m": 81,
      "n": 82,
      "o": 83,
      "p": 84,
      "q": 85,
      "r": 86,
      "s": 87,
      "t": 88,
      "u": 89,
      "v": 90,
      "w": 91,
      "x": 92,
      "y": 93,
      "z": 94,
      "{": 95,
      "|": 96,
      "}": 97,
      "~": 98,
      "¡": 99,
      "¢": 100,
      "£": 101,
      "¤": 102,
      "¥": 103,
      "¦": 104,
      "§": 105,
      "¨": 106,
      "©": 107,
      "ª": 108,
      "«": 109,
      "¬": 110,
      "®": 111,
      "¯": 112,
      "°": 113,
      "±": 114,
      "²": 115,
      "³": 116,
      "´": 117,
      "µ": 118,
      "¶": 119,
      "·": 120,
      "¸": 121,
      "¹": 122,
      "º": 123,
      "»": 124,
      "¼": 125,
      "½": 126,
      "¾": 127,
      "¿": 128,
      "À": 129,
      "Á": 130,
      "Â": 131,
      "Ã": 132,
      "Ä": 133,
      "Å": 134,
      "Æ": 135,
      "Ç": 136,
      "È": 137,
      "É": 138,
      "Ê": 139,
      "Ë": 140,
      "Ì": 141,
      "Í": 142,
      "Î": 143,
      "Ï": 144,
      "Ð": 145,
      "Ñ": 146,
      "Ò": 147,
      "Ó": 148,
      "Ô": 149,
      "Õ": 150,
      "Ö": 151,
      "×": 152,
      "Ø": 153,
      "Ù": 154,
      "Ú": 155,
      "Û": 156,
      "Ü": 157,
      "Ý": 158,
      "Þ": 159,
      "ß": 160,
      "à": 161,
      "á": 162,
      "â": 163,
      "ã": 164,
      "ä": 165,
      "å": 166,
      "æ": 167,
      "ç": 168,
      "è": 169,
      "é": 170,
      "ê": 171,
      "ë": 172,
      "ì": 173,
      "í": 174,
      "î": 175,
      "ï": 176,
      "ð": 177,
      "ñ": 178,
      "ò": 179,
      "ó": 180,
      "ô": 181,
      "õ": 182,
      "ö": 183,
      "÷": 184,
      "ø": 185,
      "ù": 186,
      "ú": 187,
      "û": 188,
      "ü": 189,
      "ý": 190,
      "þ": 191,
      "ÿ": 192,
      "Ā": 193,
      "ā": 194,
      "Ă": 195,
      "ă": 196,
      "Ą": 197,
      "ą": 198,
      "Ć": 199,
      "ć": 200,
      "Ĉ": 201,
      "ĉ": 202,
      "Ċ": 203,
      "ċ": 204,
      "Č": 205,
      "č": 206,
      "Ď": 207,
      "ď": 208,
      "Đ": 209,
      "đ": 210,
      "Ē": 211,
      "ē": 212,
      "Ĕ": 213,
      "ĕ": 214,
      "Ė": 215,
      "ė": 216,
      "Ę": 217,
      "ę": 218,
      "Ě": 219,
      "ě": 220,
      "Ĝ": 221,
      "ĝ": 222,
      "Ğ": 223,
      "ğ": 224,
      "Ġ": 225,
      "ġ": 226,
      "Ģ": 227,
      "ģ": 228,
      "Ĥ": 229,
      "ĥ": 230,
      "Ħ": 231,
      "ħ": 232,
      "Ĩ": 233,
      "ĩ": 234,
      "Ī": 235,
      "ī": 236,
      "Ĭ": 237,
      "ĭ": 238,
      "Į": 239,
      "į": 240,
      "İ": 241,
      "ı": 242,
      "Ĳ": 243,
      "ĳ": 244,
      "Ĵ": 245,
      "ĵ": 246,
      "Ķ": 247,
      "ķ": 248,
      "ĸ": 249,
      "Ĺ": 250,
      "ĺ": 251,
      "Ļ": 252,
      "ļ": 253,
      "Ľ": 254,
      "ľ": 255,
      "Ŀ": 256,
      "ŀ": 257,
      "Ł": 258,
      "ł": 259,
      "Ń": 260,
      "er": 261,
      "en": 262,
      "ch": 263,
      "Ġd": 264,
      "ei": 265,
      "ie": 266,
      "un": 267,
      "st": 268,
      "in": 269,
      "an": 270,
      "es": 271,
      "ein": 272,
      "Ġs": 273,
      "on": 274,
      "Ġa": 275,
      "Ġw": 276,
      "ich": 277,
      "Ã¼": 278,
      "ĠS": 279,
      "te": 280,
      "ge": 281,
      "Ġder": 282,
      "und": 283,
      "Ã¤": 284,
      "sch": 285,
      "Ġdie": 286,
      "ar": 287,
      "ung": 288,
      "Ġv": 289,
      "or": 290,
      "it": 291,
      "Ġund": 292,
      "ll": 293,
      "ur": 294,
      "as": 295,
      "Ġb": 296,
      "at": 297,
      "Ġein": 298,
      "ĠA": 299,
      "Ġi": 300,
      "Ġm": 301,
      "hr": 302,
      "Ġz": 303,
      "ĠB": 304,
      "em": 305,
      "Ġn": 306,
      "al": 307,
      "us": 308,
      "Ġin": 309,
      "ten": 310,
      "ĠM": 311,
      "gen": 312,
      "de": 313,
      "ter": 314,
      "Ġh": 315,
      "ĠE": 316,
      "ĠK": 317,
      "Ġf": 318,
      "ĠG": 319,
      "der": 320,
      "uf": 321,
      "ĠF": 322,
      "Ġ1": 323,
      "den": 324,
      "ĠP": 325,
      "ĠD": 326,
      "Ã¶": 327,
      "el": 328,
      "et": 329,
      "ra": 330,
      "ber": 331,
      "is": 332,
      "Ġer": 333,
      "ir": 334,
      "um": 335,
      "ĠW": 336,
      "ĠR": 337,
      "ti": 338,
      "Ġk": 339,
      "ĠH": 340,
      "lich": 341,
      "ĠT": 342,
      "am": 343,
      "ach": 344,
      "Ã¼r": 345,
      "Ġden": 346,
      "isch": 347,
      "ĠV": 348,
      "om": 349,
      "eit": 350,
      "Ġge": 351,
      "ĠL": 352,
      "Ġvon": 353,
      "ier": 354,
      "Ġdas": 355,
      "Ġg": 356,
      "ÃŁ": 357,
      "ol": 358,
      "re": 359,
      "Ġ2": 360,
      "ro": 361,
      "Ġzu": 362,
      "ck": 363,
      "Ġan": 364,
      "Ġ(": 365,
      "ben": 366,
      "icht": 367,
      "ut": 368,
      "Ġmit": 369,
      "uch": 370,
      "ig": 371,
      "ĠN": 372,
      "ĠI": 373,
      "Ġist": 374,
      "Ġauf": 375,
      "and": 376,
      "ĠJ": 377,
      "eh": 378,
      "ion": 379,
      "il": 380,
      "Ġdes": 381,
      "Ġim": 382,
      "Ġver": 383,
      "ent": 384,
      "Ġl": 385,
      "rei": 386,
      "ĠfÃ¼r": 387,
      "sen": 388,
      "ls": 389,
      "ann": 390,
      "ĠZ": 391,
      "ĠSt": 392,
      "se": 393,
      "ĠU": 394,
      "ahr": 395,
      "af": 396,
      "ste": 397,
      "men": 398,
      "au": 399,
      "le": 400,
      "ag": 401,
      "00": 402,
      "Ġbe": 403,
      "Ġdem": 404,
      "ah": 405,
      "ĠVer": 406,
      "âĢ": 407,
      "Ġsich": 408,
      "ĠC": 409,
      "Ġ\"": 410,
      "ĠSch": 411,
      "Ġnicht": 412,
      "Ġt": 413,
      "Ġo": 414,
      "Ġun": 415,
      "Ġaus": 416,
      "Ġ19": 417,
      "Ġeine": 418,
      "ischen": 419,
      "Ġso": 420,
      "ab": 421,
      "Ã¤n": 422,
      "och": 423,
      "ik": 424,
      "Die": 425,
      "Ġwir": 426,
      "ien": 427,
      "ff": 428,
      "ungen": 429,
      "kt": 430,
      "eu": 431,
      "sp": 432,
      "Ġals": 433,
      "ĠO": 434,
      "Ã¼ber": 435,
      "Ġwur": 436,
      "nen": 437,
      "ehr": 438,
      "ind": 439,
      "Ġbei": 440,
      "iel": 441,
      "Ġwar": 442,
      "wei": 443,
      "Ġes": 444,
      "ĠAn": 445,
      "ver": 446,
      "Ġsein": 447,
      "sten": 448,
      "Ġsch": 449,
      "01": 450,
      "ser": 451,
      "ger": 452,
      "ad": 453,
      "etz": 454,
      "schaf": 455,
      "Ġp": 456,
      "ation": 457,
      "eich": 458,
      "ĠIn": 459,
      "..": 460,
      "lle": 461,
      "he": 462,
      "ĠÃ¼ber": 463,
      "Ġst": 464,
      "esch": 465,
      "Ġ-": 466,
      "Ġsie": 467,
      "Ġhat": 468,
      "Ġwer": 469,
      "ern": 470,
      "ed": 471,
      "Ġauch": 472,
      "eg": 473,
      "ri": 474,
      "eil": 475,
      "os": 476,
      "hn": 477,
      "ts": 478,
      "ing": 479,
      "ul": 480,
      "aus": 481,
      "Ġj": 482,
      "op": 483,
      "ĠEr": 484,
      "Ġwurde": 485,
      "ungs": 486,
      "im": 487,
      "ot": 488,
      "Ã¼n": 489,
      "ĠJahr": 490,
      "est": 491,
      "llen": 492,
      "Ġnach": 493,
      "Ġvor": 494,
      "Ġwie": 495,
      "Ġum": 496,
      "urch": 497,
      "Ġwerden": 498,
      "Ġam": 499,
      "rie": 500,
      "ĠSie": 501,
      "Ġsind": 502,
      "ort": 503,
      "ru": 504,
      "mer": 505,
      "lie": 506,
      "ang": 507,
      "Ġihr": 508,
      "ĠâĢ": 509,
      "ist": 510,
      "gt": 511,
      "Ġzur": 512,
      "Ã¶n": 513,
      "enn": 514,
      "Ã¶r": 515,
      "ĠUn": 516,
      "la": 517,
      "be": 518,
      "ĠAr": 519,
      "all": 520,
      "ĠSp": 521,
      "end": 522,
      "ische": 523,
      "Ã¤r": 524,
      "Ġeiner": 525,
      "schaft": 526,
      "Ġwird": 527,
      "Ġe": 528,
      "Ã¤t": 529,
      "aben": 530,
      "Ġ201": 531,
      "ĠPro": 532,
      "rÃ¤": 533,
      "Ġ3": 534,
      "Ġdass": 535,
      "Ġbis": 536,
      "chen": 537,
      "anz": 538,
      "ne": 539,
      "Ġich": 540,
      "hal": 541,
      "Ġdurch": 542,
      "Ġzum": 543,
      "ht": 544,
      "Ġr": 545,
      "hl": 546,
      "Ġunter": 547,
      "wer": 548,
      "Ã¼ck": 549,
      "tig": 550,
      "ĠEin": 551,
      "ĠEn": 552,
      "tet": 553,
      "Ġoder": 554,
      "Ġeinen": 555,
      "ech": 556,
      "ĠGe": 557,
      "Das": 558,
      "ug": 559,
      "ft": 560,
      "Ġent": 561,
      "ĠDie": 562,
      "Ġeinem": 563,
      "lichen": 564,
      "igen": 565,
      "kti": 566,
      "Ġab": 567,
      "Ġda": 568,
      "ster": 569,
      "tel": 570,
      "pp": 571,
      "eiter": 572,
      "stell": 573,
      "ill": 574,
      "Ich": 575,
      "ĠAus": 576,
      "tern": 577,
      "Ã¼hr": 578,
      "ĠBe": 579,
      "eine": 580,
      "gel": 581,
      "omm": 582,
      "Der": 583,
      "art": 584,
      "ĠMit": 585,
      "ran": 586,
      "auf": 587,
      "iert": 588,
      "Ġsp": 589,
      "zen": 590,
      "ner": 591,
      "uss": 592,
      "Ġ200": 593,
      "iv": 594,
      "ige": 595,
      "ĠÃ": 596,
      "bt": 597,
      "ick": 598,
      "og": 599,
      "ahl": 600,
      "geb": 601,
      "che": 602,
      "Ã¤hr": 603,
      "ĠBer": 604,
      "ommen": 605,
      "ers": 606,
      "eut": 607,
      "Ġnoch": 608,
      "ehen": 609,
      "uÃŁ": 610,
      "ert": 611,
      "bl": 612,
      "Ġhaben": 613,
      "pf": 614,
      "rit": 615,
      "for": 616,
      "atz": 617,
      "liche": 618,
      "iz": 619,
      "ic": 620,
      "her": 621,
      "eiten": 622,
      "schen": 623,
      "In": 624,
      "elt": 625,
      "ges": 626,
      "eits": 627,
      "hen": 628,
      "Ġall": 629,
      "ass": 630,
      "Ġre": 631,
      "me": 632,
      "Ġnur": 633,
      "Ġwo": 634,
      "ord": 635,
      "zu": 636,
      "ĠAb": 637,
      "ĠkÃ¶n": 638,
      "Ġmehr": 639,
      "\",": 640,
      "ken": 641,
      "schl": 642,
      "ĠVor": 643,
      "lin": 644,
      "aten": 645,
      "ĠMa": 646,
      "Ġander": 647,
      "ast": 648,
      "cht": 649,
      "fen": 650,
      "ap": 651,
      "Ġaber": 652,
      "ess": 653,
      "ĠRe": 654,
      "rÃ¼": 655,
      "ust": 656,
      "ĠEur": 657,
      "Ġ18": 658,
      "Ġ4": 659,
      "etzt": 660,
      "det": 661,
      "tra": 662,
      "Ġvom": 663,
      "ĠâĢŀ": 664,
      "âĢľ": 665,
      "Ġzwei": 666,
      "gr": 667,
      "Ġdies": 668,
      "abe": 669,
      "ĠAuf": 670,
      "Ġdu": 671,
      "bar": 672,
      "ud": 673,
      "eben": 674,
      "adt": 675,
      "dern": 676,
      "ÂŃ": 677,
      "Ġ0": 678,
      "arb": 679,
      "ho": 680,
      "ze": 681,
      "Ġ5": 682,
      "ler": 683,
      "ĠGr": 684,
      "keit": 685,
      "Ã¤ch": 686,
      "wie": 687,
      "mal": 688,
      "lei": 689,
      "Ġkann": 690,
      "pl": 691,
      "...": 692,
      "Ġneu": 693,
      "ohn": 694,
      "ke": 695,
      "ob": 696,
      "Un": 697,
      "ue": 698,
      "Ġber": 699,
      "alt": 700,
      "oll": 701,
      "roÃŁ": 702,
      "ia": 703,
      "id": 704,
      "acht": 705,
      "ok": 706,
      "nis": 707,
      "Ġzw": 708,
      "Ġman": 709,
      "eb": 710,
      "Ein": 711,
      "lt": 712,
      "ant": 713,
      "ieren": 714,
      "ktion": 715,
      "Ġdar": 716,
      "Ġwas": 717,
      "ĠKon": 718,
      "Ġgew": 719,
      "ss": 720,
      "19": 721,
      "Sie": 722,
      "iss": 723,
      "fahr": 724,
      "ĠOr": 725,
      "Ġc": 726,
      "imm": 727,
      "leich": 728,
      ").": 729,
      "kl": 730,
      "ild": 731,
      "Ġgegen": 732,
      "ĠHer": 733,
      "reich": 734,
      "Âł": 735,
      "Ġweiter": 736,
      "ehmen": 737,
      "ĠMar": 738,
      "ww": 739,
      "heit": 740,
      "ow": 741,
      "Ġet": 742,
      "ĠLand": 743,
      "assen": 744,
      "ĠGem": 745,
      "ĠZeit": 746,
      "),": 747,
      "ekt": 748,
      "Ġsoll": 749,
      "Ġ7": 750,
      "ak": 751,
      "fÃ¼hr": 752,
      "ial": 753,
      "Er": 754,
      "nah": 755,
      "Es": 756,
      "Ġlie": 757,
      "Ġbes": 758,
      "ay": 759,
      "fer": 760,
      "bur": 761,
      "ĠEnt": 762,
      "ell": 763,
      "ĠFra": 764,
      "Ġges": 765,
      "utz": 766,
      "fl": 767,
      "Ã¼t": 768,
      "ĠArb": 769,
      "Ġwurden": 770,
      "ammen": 771,
      "glich": 772,
      "fol": 773,
      "mit": 774,
      "ov": 775,
      "ĠkÃ¶nnen": 776,
      "ierung": 777,
      "age": 778,
      "du": 779,
      "Ġgen": 780,
      "ffen": 781,
      "Ġ6": 782,
      "Ġ199": 783,
      "Ġwieder": 784,
      "itz": 785,
      "ĠGemein": 786,
      "Ġhin": 787,
      "ande": 788,
      "att": 789,
      "Ġkon": 790,
      "ĠSe": 791,
      "ĠFl": 792,
      "Ġbest": 793,
      "bst": 794,
      "od": 795,
      "ĠCh": 796,
      "Ġhatte": 797,
      "ĠAl": 798,
      "fe": 799,
      "mm": 800,
      "\".": 801,
      "eigen": 802,
      "unden": 803,
      "tp": 804,
      "vor": 805,
      "usammen": 806,
      "dem": 807,
      "Ġhier": 808,
      "per": 809,
      "schie": 810,
      "rin": 811,
      "Ġkl": 812,
      "ĠNach": 813,
      "teil": 814,
      "Ġbet": 815,
      "land": 816,
      "pt": 817,
      "eiÃŁ": 818,
      "//": 819,
      "agen": 820,
      "Wir": 821,
      "Ġdieser": 822,
      "ard": 823,
      "reis": 824,
      "ĠGes": 825,
      "glie": 826,
      "Ġher": 827,
      "ational": 828,
      "Ã¤nd": 829,
      "ierte": 830,
      "ĠStadt": 831,
      "ĠEurop": 832,
      "Ġetw": 833,
      "gan": 834,
      "lieÃŁ": 835,
      "eid": 836,
      "olit": 837,
      "nung": 838,
      "ma": 839,
      "Ġeines": 840,
      "Ġwenn": 841,
      "://": 842,
      "Ġsowie": 843,
      "rat": 844,
      "ez": 845,
      "Ġdiese": 846,
      "eld": 847,
      "ischer": 848,
      "lung": 849,
      "net": 850,
      "iger": 851,
      "ĠReg": 852,
      "we": 853,
      "Ġseine": 854,
      "ĠUm": 855,
      "ĠUnter": 856,
      "sam": 857,
      "ark": 858,
      "eim": 859,
      "Ã¼s": 860,
      "form": 861,
      "wick": 862,
      "nt": 863,
      "St": 864,
      "Ġhabe": 865,
      "ĠKl": 866,
      "mein": 867,
      "ĠKomm": 868,
      "ľber": 869,
      "io": 870,
      "Ã¶ff": 871,
      "Ġ8": 872,
      "ett": 873,
      "ĠPl": 874,
      "itÃ¤t": 875,
      "zeit": 876,
      "gesch": 877,
      "Ġzwischen": 878,
      "ĠgroÃŁ": 879,
      "ibt": 880,
      "iele": 881,
      "kte": 882,
      "hm": 883,
      "si": 884,
      "Ġje": 885,
      "Im": 886,
      "ahn": 887,
      "ce": 888,
      "eite": 889,
      "Ġuns": 890,
      "ĠDer": 891,
      "ĠDeut": 892,
      "sche": 893,
      "los": 894,
      "ate": 895,
      "Sch": 896,
      "Ġ9": 897,
      "201": 898,
      "rich": 899,
      "onder": 900,
      "An": 901,
      "ĠFor": 902,
      "kommen": 903,
      "Ġdann": 904,
      "zeu": 905,
      "Ġsei": 906,
      "Ġ10": 907,
      "Ġseiner": 908,
      "Ġ15": 909,
      "ĠJahre": 910,
      "ub": 911,
      "gend": 912,
      "ĠRo": 913,
      "Ġsag": 914,
      "burg": 915,
      "qu": 916,
      "oren": 917,
      "sel": 918,
      "ĠJahren": 919,
      "issen": 920,
      "Ġwaren": 921,
      "Ġins": 922,
      "fin": 923,
      "ĠHo": 924,
      "irt": 925,
      "aut": 926,
      "Ġ.": 927,
      "Ġgeh": 928,
      "eute": 929,
      "ren": 930,
      "Ġdeut": 931,
      "ĠGesch": 932,
      "ĠMen": 933,
      "10": 934,
      "ition": 935,
      "nte": 936,
      "tigen": 937,
      "ember": 938,
      "Ġihre": 939,
      "lau": 940,
      "Ġschon": 941,
      "Und": 942,
      "Ġmir": 943,
      "fÃ¼": 944,
      "eister": 945,
      "einen": 946,
      "ont": 947,
      "ater": 948,
      "kel": 949,
      "ÃŁe": 950,
      "haus": 951,
      "Ġ17": 952,
      "tem": 953,
      "zeich": 954,
      "Ã¤hl": 955,
      "lo": 956,
      "Ġ12": 957,
      "inder": 958,
      "stellt": 959,
      "ission": 960,
      "Ġ198": 961,
      "Ġdam": 962,
      "bau": 963,
      "our": 964,
      "Ġgibt": 965,
      "halten": 966,
      "Ġsel": 967,
      "Ã¶glich": 968,
      "ĠSte": 969,
      "rupp": 970,
      "Ġmich": 971,
      "ale": 972,
      "gra": 973,
      "Ġ20": 974,
      "orden": 975,
      "eht": 976,
      "hnen": 977,
      "achen": 978,
      "000": 979,
      "ĠBr": 980,
      "Ġfin": 981,
      "war": 982,
      "Ġjed": 983,
      "Ġalle": 984,
      "ph": 985,
      "amt": 986,
      "pr": 987,
      "tion": 988,
      "Ġviel": 989,
      "amen": 990,
      "Ġunser": 991,
      "Ġdrei": 992,
      "aat": 993,
      "fall": 994,
      "annt": 995,
      "vers": 996,
      "Ġseit": 997,
      "pro": 998,
      "zent": 999,
      "Ġger": 1000,
      "ĠMitglie": 1001,
      "min": 1002,
      "Ġsehr": 1003,
      "ĠQ": 1004,
      "ĠÃľber": 1005,
      "arl": 1006,
      "Ġimmer": 1007,
      "ĠIm": 1008,
      "ieder": 1009,
      "ĠdaÃŁ": 1010,
      "ian": 1011,
      "ĠSo": 1012,
      "ĠâĢĵ": 1013,
      "berg": 1014,
      "av": 1015,
      "Ġ16": 1016,
      "Ã¤nder": 1017,
      "spiel": 1018,
      "ĠAm": 1019,
      "Ġkeine": 1020,
      "stand": 1021,
      "ĠTeil": 1022,
      "ĠSpiel": 1023,
      "ationen": 1024,
      "Ġgesch": 1025,
      "12": 1026,
      "geben": 1027,
      "Ã¼d": 1028,
      "satz": 1029,
      "ĠIhr": 1030,
      "weise": 1031,
      "sk": 1032,
      "ium": 1033,
      "Ġthe": 1034,
      "Ġgr": 1035,
      "Ġange": 1036,
      "ucht": 1037,
      "if": 1038,
      "ĠKo": 1039,
      "Ã¶l": 1040,
      "ĠWelt": 1041,
      "ĠzurÃ¼ck": 1042,
      "ĠDas": 1043,
      "ald": 1044,
      "iet": 1045,
      "ĠHaus": 1046,
      "bes": 1047,
      "hne": 1048,
      "cken": 1049,
      "eter": 1050,
      "yst": 1051,
      "ĠUhr": 1052,
      "ĠTh": 1053,
      "ank": 1054,
      "erson": 1055,
      "Ġdiesem": 1056,
      "Mit": 1057,
      "mann": 1058,
      "eist": 1059,
      "Ġihn": 1060,
      "ine": 1061,
      "atur": 1062,
      "richt": 1063,
      "Ġausge": 1064,
      "trag": 1065,
      "kehr": 1066,
      "Ġbeg": 1067,
      "Ver": 1068,
      "ĠGeb": 1069,
      "olog": 1070,
      "rank": 1071,
      "Ġfol": 1072,
      "eren": 1073,
      "br": 1074,
      "ĠBet": 1075,
      "ĠmÃ¼s": 1076,
      "Ġof": 1077,
      "ĠLeben": 1078,
      "ĠStra": 1079,
      "Ġbeim": 1080,
      "Ġde": 1081,
      "Ã©": 1082,
      "amm": 1083,
      "Ã¤l": 1084,
      "Ġeigen": 1085,
      "Ġ14": 1086,
      "Ġerst": 1087,
      "ĠFrau": 1088,
      "Ġen": 1089,
      "Ġanderen": 1090,
      "inn": 1091,
      "stag": 1092,
      "http": 1093,
      "ystem": 1094,
      "ĠRech": 1095,
      "ÃŁen": 1096,
      "tige": 1097,
      "Ġganz": 1098,
      "aupt": 1099,
      "chte": 1100,
      "ER": 1101,
      "halb": 1102,
      "ks": 1103,
      "Ã¼nf": 1104,
      "lÃ¤": 1105,
      "Ġersten": 1106,
      "undes": 1107,
      "anden": 1108,
      "amil": 1109,
      "omp": 1110,
      "ew": 1111,
      "Ġdir": 1112,
      "icher": 1113,
      "ĠMin": 1114,
      "Ġ197": 1115,
      "ĠZu": 1116,
      "Ã¤f": 1117,
      "ĠBei": 1118,
      "ichte": 1119,
      "rieb": 1120,
      "ac": 1121,
      "ternehmen": 1122,
      "Ġpro": 1123,
      "Was": 1124,
      "Ġ13": 1125,
      "ade": 1126,
      "Ã¶s": 1127,
      "rum": 1128,
      "hÃ¤": 1129,
      "Ġ11": 1130,
      "zt": 1131,
      "esen": 1132,
      "Ã¤hrend": 1133,
      "ive": 1134,
      "Ġwen": 1135,
      "aum": 1136,
      "ĠGrund": 1137,
      "Ġgeb": 1138,
      "ĠMus": 1139,
      "egen": 1140,
      "uÃŁer": 1141,
      "ĠGer": 1142,
      "ander": 1143,
      "Ã¤ter": 1144,
      "Ġwill": 1145,
      "alen": 1146,
      "ost": 1147,
      "ĠWas": 1148,
      "stellen": 1149,
      "lage": 1150,
      "ult": 1151,
      "ĠMann": 1152,
      "ĠBl": 1153,
      "ĠMon": 1154,
      "uten": 1155,
      "ip": 1156,
      "Ã¤d": 1157,
      "Ġbek": 1158,
      "Ġgut": 1159,
      "Nach": 1160,
      "18": 1161,
      "abei": 1162,
      "ĠKommission": 1163,
      "20": 1164,
      "ĠgehÃ¶r": 1165,
      "fra": 1166,
      "Ġbesch": 1167,
      "Ġmein": 1168,
      "ktiv": 1169,
      "schafts": 1170,
      "fahren": 1171,
      "Ã¶ffent": 1172,
      "zie": 1173,
      "ĠTe": 1174,
      "ais": 1175,
      "www": 1176,
      "schland": 1177,
      "ĠPol": 1178,
      "ker": 1179,
      "11": 1180,
      "off": 1181,
      "igkeit": 1182,
      "ĠFr": 1183,
      "Ġar": 1184,
      "Ġgleich": 1185,
      "ĠUS": 1186,
      "ielt": 1187,
      "ĠRat": 1188,
      "Ã¤ischen": 1189,
      "oh": 1190,
      "Ġihm": 1191,
      "zial": 1192,
      "bild": 1193,
      "gung": 1194,
      "200": 1195,
      "stra": 1196,
      "Ġverl": 1197,
      "âĤ": 1198,
      "Ġjedoch": 1199,
      "ack": 1200,
      "ek": 1201,
      "ott": 1202,
      "âĤ¬": 1203,
      "ings": 1204,
      "ĠfÃ¼hr": 1205,
      "schaften": 1206,
      "licher": 1207,
      "ĠMenschen": 1208,
      "ange": 1209,
      "Ġdamit": 1210,
      "uer": 1211,
      "iff": 1212,
      "ĠWer": 1213,
      "tre": 1214,
      "ĠAut": 1215,
      "mittel": 1216,
      "orf": 1217,
      "ĠBau": 1218,
      "ĠÂ": 1219,
      "17": 1220,
      "rech": 1221,
      "ionen": 1222,
      "30": 1223,
      "fach": 1224,
      "Ġbereits": 1225,
      "unde": 1226,
      "Ġselbst": 1227,
      "Ġson": 1228,
      "ute": 1229,
      "16": 1230,
      "zahl": 1231,
      "ĠMitglied": 1232,
      "ĠSchl": 1233,
      "ĠArbeit": 1234,
      "schieden": 1235,
      "ende": 1236,
      "Ġgef": 1237,
      "com": 1238,
      "als": 1239,
      "Ġihrer": 1240,
      "olitik": 1241,
      "ĠBes": 1242,
      "ober": 1243,
      "ierten": 1244,
      "ingen": 1245,
      "ichtig": 1246,
      "Ġgel": 1247,
      "ĠPerson": 1248,
      "ĠBo": 1249,
      "Ġ/": 1250,
      "Ġbin": 1251,
      "stellung": 1252,
      "Ġmuss": 1253,
      "rad": 1254,
      "ĠMÃ¤r": 1255,
      "ister": 1256,
      "Ġetwa": 1257,
      "unkt": 1258,
      "ohl": 1259,
      "Ġfor": 1260,
      "ere": 1261,
      "50": 1262,
      "Ġseinen": 1263,
      "Ġ2016": 1264,
      "folg": 1265,
      "fs": 1266,
      "Ġzusammen": 1267,
      "EN": 1268,
      "wend": 1269,
      "Ã¤m": 1270,
      "ha": 1271,
      "setz": 1272,
      "ĠwÃ¼r": 1273,
      "zel": 1274,
      "lagen": 1275,
      "ĠJun": 1276,
      "walt": 1277,
      "enden": 1278,
      "Ã¶ÃŁ": 1279,
      "halt": 1280,
      "ens": 1281,
      "isten": 1282,
      "gar": 1283,
      "Ġgeht": 1284,
      "Ã¼rger": 1285,
      "ĠmÃ¼ssen": 1286,
      "Ġneue": 1287,
      "ans": 1288,
      "auer": 1289,
      "ym": 1290,
      "ienst": 1291,
      "weg": 1292,
      "siden": 1293,
      "ritt": 1294,
      "Du": 1295,
      "riff": 1296,
      "az": 1297,
      "ĠVerein": 1298,
      "Ġverb": 1299,
      "Ġkomm": 1300,
      "ĠAug": 1301,
      "irk": 1302,
      "uchen": 1303,
      "rÃ¤siden": 1304,
      "bei": 1305,
      "gl": 1306,
      "ron": 1307,
      "ĠEs": 1308,
      "ule": 1309,
      "ilm": 1310,
      "Ġu": 1311,
      "ĠEuro": 1312,
      "aaten": 1313,
      "uft": 1314,
      "gang": 1315,
      "ĠPart": 1316,
      "ĠÃĸ": 1317,
      "nahme": 1318,
      "Ġon": 1319,
      "mus": 1320,
      "stÃ¤nd": 1321,
      "ĠUnternehmen": 1322,
      "dr": 1323,
      "ĠDeutschland": 1324,
      "klÃ¤r": 1325,
      "ĠBundes": 1326,
      "ogen": 1327,
      "ĠProdu": 1328,
      "Ġheute": 1329,
      "ĠFamil": 1330,
      "Ġseinem": 1331,
      "ĠMo": 1332,
      "Ġjetzt": 1333,
      "Ġdoch": 1334,
      "hin": 1335,
      "ĠKinder": 1336,
      "ĠFahr": 1337,
      "ite": 1338,
      "zw": 1339,
      "na": 1340,
      "ĠEnde": 1341,
      "so": 1342,
      "yp": 1343,
      "15": 1344,
      "ĠQu": 1345,
      "Ġeinge": 1346,
      "ĠLe": 1347,
      "Wie": 1348,
      "nahmen": 1349,
      "schlieÃŁ": 1350,
      "ĠTag": 1351,
      "Ġ196": 1352,
      "ruck": 1353,
      "ĠGen": 1354,
      "Ġdich": 1355,
      "ta": 1356,
      "....": 1357,
      "ĠKir": 1358,
      "zei": 1359,
      "ĠY": 1360,
      "hol": 1361,
      "Ġeben": 1362,
      "hil": 1363,
      "innen": 1364,
      "rach": 1365,
      "ĠEx": 1366,
      "Ġletz": 1367,
      "asse": 1368,
      "enz": 1369,
      "essen": 1370,
      "reu": 1371,
      "ĠSchw": 1372,
      "Ġnie": 1373,
      "ib": 1374,
      "ĠMÃ¤rz": 1375,
      "mÃ¤": 1376,
      "urop": 1377,
      "ond": 1378,
      "Ġal": 1379,
      "Ġ30": 1380,
      "ĠBesch": 1381,
      "nisse": 1382,
      "ĠVerb": 1383,
      "ĠJul": 1384,
      "Aber": 1385,
      "ĠEl": 1386,
      "keiten": 1387,
      "ec": 1388,
      "Ġdieses": 1389,
      "ĠJan": 1390,
      "Ã¤nger": 1391,
      "CH": 1392,
      "Ã¼nd": 1393,
      "ivers": 1394,
      "Am": 1395,
      "urz": 1396,
      "igung": 1397,
      "ĠEU": 1398,
      "ĠOrt": 1399,
      "Ġohne": 1400,
      "Wenn": 1401,
      "ef": 1402,
      "ĠZusammen": 1403,
      "ĠspÃ¤ter": 1404,
      "ĠMill": 1405,
      "Ġihren": 1406,
      "arbeit": 1407,
      "unter": 1408,
      "Bei": 1409,
      "Ġetwas": 1410,
      "ou": 1411,
      "gemein": 1412,
      "Ġliegt": 1413,
      "eicht": 1414,
      "nit": 1415,
      "meister": 1416,
      "Ġ194": 1417,
      "Ġeh": 1418,
      "oten": 1419,
      "von": 1420,
      "Ġand": 1421,
      "Ġneuen": 1422,
      "Ġkommen": 1423,
      "rag": 1424,
      "ĠÃĦ": 1425,
      "cke": 1426,
      "Auf": 1427,
      "angen": 1428,
      "blem": 1429,
      "kon": 1430,
      "ĠEntwick": 1431,
      "Ġkein": 1432,
      "Ġverw": 1433,
      "Ġ,": 1434,
      "Ġnun": 1435,
      "gew": 1436,
      "tikel": 1437,
      "spr": 1438,
      "Als": 1439,
      "immer": 1440,
      "rieg": 1441,
      "Ġaller": 1442,
      "Ġvier": 1443,
      "Ġfest": 1444,
      "haf": 1445,
      "ĠweiÃŁ": 1446,
      "Ġfr": 1447,
      "fte": 1448,
      "Ġdort": 1449,
      "sicht": 1450,
      "ĠSon": 1451,
      "ubl": 1452,
      "Ġworden": 1453,
      "ys": 1454,
      "Ã¤ng": 1455,
      "mar": 1456,
      "igt": 1457,
      "ĠNeu": 1458,
      "ternational": 1459,
      "So": 1460,
      "ĠPf": 1461,
      "Ġandere": 1462,
      "Ġgest": 1463,
      "gleich": 1464,
      "Ġnah": 1465,
      "ĠSti": 1466,
      "ame": 1467,
      "gramm": 1468,
      "hof": 1469,
      "ĠOber": 1470,
      "Ġwel": 1471,
      "amp": 1472,
      "man": 1473,
      "22": 1474,
      "gangen": 1475,
      "zug": 1476,
      "Ġ%": 1477,
      "ĠNov": 1478,
      "Ġmus": 1479,
      "ĠHaupt": 1480,
      "Ġob": 1481,
      "ruppe": 1482,
      "stadt": 1483,
      "ikan": 1484,
      "fÃ¤": 1485,
      "Ġmachen": 1486,
      "Ġgemein": 1487,
      "Ġvers": 1488,
      "rot": 1489,
      "iell": 1490,
      "esse": 1491,
      "ĠRei": 1492,
      "Ã¶nig": 1493,
      "ament": 1494,
      "Ġkonnte": 1495,
      "ĠArbeits": 1496,
      "ĠFin": 1497,
      "org": 1498,
      "uar": 1499,
      "werk": 1500,
      "ations": 1501,
      "25": 1502,
      "Ġ25": 1503,
      "grund": 1504,
      "osten": 1505,
      "irtschaft": 1506,
      "Ġfolgen": 1507,
      "kauf": 1508,
      "rechen": 1509,
      "Ã¤u": 1510,
      "falls": 1511,
      "FÃ¼r": 1512,
      "sa": 1513,
      "legen": 1514,
      "14": 1515,
      "ĠBerlin": 1516,
      "stÃ¼t": 1517,
      "ĠTra": 1518,
      "ĠSep": 1519,
      "ĠgrÃ¶ÃŁ": 1520,
      "âĢĵ": 1521,
      "Ġviele": 1522,
      "Ġbeiden": 1523,
      "itzen": 1524,
      "tember": 1525,
      "hÃ¶": 1526,
      "Ã¤re": 1527,
      "ĠCo": 1528,
      "ĠFre": 1529,
      "Ã¤tig": 1530,
      "ĠKar": 1531,
      "Ġsagte": 1532,
      "ĠJuni": 1533,
      "ĠwÃ¤hrend": 1534,
      "ktur": 1535,
      "sb": 1536,
      "Ġverschieden": 1537,
      "Ġerste": 1538,
      "gaben": 1539,
      "old": 1540,
      "chn": 1541,
      "inter": 1542,
      "ĠBereich": 1543,
      "hund": 1544,
      "eln": 1545,
      "ment": 1546,
      "ven": 1547,
      "zer": 1548,
      "Ġkam": 1549,
      "Eine": 1550,
      "zeug": 1551,
      "Ġdenn": 1552,
      "wohn": 1553,
      "ganis": 1554,
      "'s": 1555,
      "Ã¼nst": 1556,
      "ktober": 1557,
      "Ġallem": 1558,
      "ĠMal": 1559,
      "13": 1560,
      "Ġteil": 1561,
      "Ġdabei": 1562,
      "ĠStaat": 1563,
      "ĠEuropÃ¤ischen": 1564,
      "ĠHand": 1565,
      "Ġsteht": 1566,
      "ĠJu": 1567,
      "Ġis": 1568,
      "Ġmal": 1569,
      "ĠWoch": 1570,
      "Sp": 1571,
      "ĠMe": 1572,
      "th": 1573,
      "gie": 1574,
      "ĠmÃ¶": 1575,
      "ball": 1576,
      "ĠMittel": 1577,
      "aden": 1578,
      "Ġsondern": 1579,
      "ĠWei": 1580,
      "Ġ22": 1581,
      "rÃ¤sident": 1582,
      "ehn": 1583,
      "ultur": 1584,
      "ĠGroÃŁ": 1585,
      "ĠBild": 1586,
      "fang": 1587,
      "Ġex": 1588,
      "alien": 1589,
      "ĠChr": 1590,
      "ĠGemeinde": 1591,
      "ina": 1592,
      "ingt": 1593,
      "ĠHÃ¶": 1594,
      "ĠWasser": 1595,
      "fÃ¼hrt": 1596,
      "tier": 1597,
      "Ã¶rder": 1598,
      "Ġalles": 1599,
      "ĠAugust": 1600,
      "ĠInd": 1601,
      "scheid": 1602,
      "Ġdiesen": 1603,
      "ĠUr": 1604,
      "alten": 1605,
      "tr": 1606,
      "ezember": 1607,
      "Ġgab": 1608,
      "ĠSchul": 1609,
      "ĠApr": 1610,
      "iere": 1611,
      "ĠInform": 1612,
      "tigt": 1613,
      "alis": 1614,
      "ller": 1615,
      "reichen": 1616,
      "andel": 1617,
      "Ġsagt": 1618,
      "tw": 1619,
      "ĠFrank": 1620,
      "eiden": 1621,
      "forder": 1622,
      "ĠFrei": 1623,
      "Ġsollte": 1624,
      "Ã¤tz": 1625,
      "Ġstatt": 1626,
      "ufen": 1627,
      "euer": 1628,
      "hÃ¤lt": 1629,
      "scher": 1630,
      "ĠLie": 1631,
      "03": 1632,
      "di": 1633,
      "ĠUnivers": 1634,
      "eig": 1635,
      "ĠBeg": 1636,
      "Da": 1637,
      "ĠfrÃ¼": 1638,
      "Auch": 1639,
      "ĠSeptember": 1640,
      "izei": 1641,
      "ĠDe": 1642,
      "Ġdenen": 1643,
      "ĠOktober": 1644,
      "kun": 1645,
      "itÃ¤": 1646,
      "Ġbesonder": 1647,
      "ĠRÃ¼ck": 1648,
      "Ġbra": 1649,
      "ĠPar": 1650,
      "07": 1651,
      "ĠJuli": 1652,
      "mÃ¤ÃŁ": 1653,
      "ĠBÃ¼rger": 1654,
      "ativ": 1655,
      "ĠMai": 1656,
      "ringen": 1657,
      "Ġte": 1658,
      "Ã¤nde": 1659,
      "Ġ21": 1660,
      "ĠRicht": 1661,
      "neh": 1662,
      "ĠKÃ¶nig": 1663,
      "tete": 1664,
      "Ã¶ffentlich": 1665,
      "ĠNovember": 1666,
      "htm": 1667,
      "ock": 1668,
      "tag": 1669,
      "rieben": 1670,
      "ĠWohn": 1671,
      "ĠInter": 1672,
      "ĠHerr": 1673,
      "Ġbef": 1674,
      "ĠhÃ¤t": 1675,
      "08": 1676,
      "ĠWar": 1677,
      "immt": 1678,
      "ore": 1679,
      "deut": 1680,
      "ĠGra": 1681,
      "ĠJanuar": 1682,
      "ats": 1683,
      "ĠVers": 1684,
      "The": 1685,
      "Ġlang": 1686,
      "Ġto": 1687,
      "ordnung": 1688,
      "Ġ+": 1689,
      "Ġweil": 1690,
      "Ġgem": 1691,
      "Ġbel": 1692,
      "Ġeinfach": 1693,
      "fern": 1694,
      "del": 1695,
      "enk": 1696,
      "heim": 1697,
      "ĠThe": 1698,
      "Ġ23": 1699,
      "ĠDezember": 1700,
      "ichts": 1701,
      "04": 1702,
      "ies": 1703,
      "genommen": 1704,
      "ĠMusik": 1705,
      "orgen": 1706,
      "ĠfÃ¼nf": 1707,
      "Ġ24": 1708,
      "Bl": 1709,
      "Diese": 1710,
      "ften": 1711,
      "Ã¤chst": 1712,
      "Ġspiel": 1713,
      "Ġaufge": 1714,
      "aar": 1715,
      "ĠPlatz": 1716,
      "Ġsehen": 1717,
      "05": 1718,
      "allen": 1719,
      "ĠGl": 1720,
      "jÃ¤hr": 1721,
      "02": 1722,
      "Ġverst": 1723,
      "ĠApril": 1724,
      "ĠDurch": 1725,
      "co": 1726,
      "ĠNord": 1727,
      "Ġben": 1728,
      "wert": 1729,
      "Ã¤ndern": 1730,
      "Ġbefin": 1731,
      "ĠVol": 1732,
      "ĠProzent": 1733,
      "raft": 1734,
      "punkt": 1735,
      "ache": 1736,
      "rom": 1737,
      "jekt": 1738,
      "ried": 1739,
      "aison": 1740,
      "Ġentsp": 1741,
      "ĠArtikel": 1742,
      "iner": 1743,
      "Ja": 1744,
      "ĠMan": 1745,
      "Ġht": 1746,
      "ĠLin": 1747,
      "ĠProblem": 1748,
      "ide": 1749,
      "jahr": 1750,
      "ĠÃ¤": 1751,
      "ĠmÃ¶glich": 1752,
      "Ġkommt": 1753,
      "amer": 1754,
      "raum": 1755,
      "ĠSÃ¼d": 1756,
      "ax": 1757,
      "Ġfinden": 1758,
      "prÃ¤": 1759,
      "schri": 1760,
      "ai": 1761,
      "Ġdazu": 1762,
      "legt": 1763,
      "ĠMed": 1764,
      "Ġbeh": 1765,
      "ĠFilm": 1766,
      "erv": 1767,
      "up": 1768,
      "bo": 1769,
      "nten": 1770,
      "Ġ&": 1771,
      "stein": 1772,
      "riv": 1773,
      "emen": 1774,
      "24": 1775,
      "err": 1776,
      "Ġnichts": 1777,
      "Ġdarauf": 1778,
      "arlament": 1779,
      "Ġ195": 1780,
      "fo": 1781,
      "Ġhatten": 1782,
      "sst": 1783,
      "06": 1784,
      "itu": 1785,
      "Ġ193": 1786,
      "Ġblei": 1787,
      "Ġzun": 1788,
      "Ġrund": 1789,
      "199": 1790,
      "ager": 1791,
      "lossen": 1792,
      "ahmen": 1793,
      "Ġgemeinsam": 1794,
      "sterreich": 1795,
      "afÃ¼r": 1796,
      "arten": 1797,
      "Ġja": 1798,
      "Pro": 1799,
      "Aus": 1800,
      "ĠwÃ¼rde": 1801,
      "Ã¤hlt": 1802,
      "Ġfrei": 1803,
      "ĠJahrhund": 1804,
      "ĠIhnen": 1805,
      "unst": 1806,
      "ĠEntwicklung": 1807,
      "Ġbie": 1808,
      "eitung": 1809,
      "ustrie": 1810,
      "wohl": 1811,
      "obil": 1812,
      "09": 1813,
      "dings": 1814,
      "Ġweitere": 1815,
      "ĠâĢĶ": 1816,
      "opp": 1817,
      "echsel": 1818,
      "Vor": 1819,
      "ĠStud": 1820,
      "gabe": 1821,
      "ellschaft": 1822,
      "inde": 1823,
      "ennt": 1824,
      "Ġ(*": 1825,
      "yn": 1826,
      "eile": 1827,
      "ĠNamen": 1828,
      "ĠPersonen": 1829,
      "Ġ2015": 1830,
      "fr": 1831,
      "Ġhttp": 1832,
      "cher": 1833,
      "mals": 1834,
      "Ġho": 1835,
      "ĠHoch": 1836,
      "bach": 1837,
      "ĠArt": 1838,
      "Ġersch": 1839,
      "Ġlassen": 1840,
      "schutz": 1841,
      "bung": 1842,
      "umen": 1843,
      "unktion": 1844,
      "erk": 1845,
      "ĠInst": 1846,
      "ehl": 1847,
      "fÃ¼hrung": 1848,
      "ĠNr": 1849,
      "Ar": 1850,
      "Ġ:": 1851,
      "Ġsol": 1852,
      "ĠRahmen": 1853,
      "ebru": 1854,
      "feld": 1855,
      "utter": 1856,
      "ĠIch": 1857,
      "itel": 1858,
      "ruktur": 1859,
      "bet": 1860,
      "welt": 1861,
      "itte": 1862,
      "anst": 1863,
      "affen": 1864,
      "achsen": 1865,
      "tro": 1866,
      "ebruar": 1867,
      "Ġch": 1868,
      "ieg": 1869,
      "Von": 1870,
      "Ġderen": 1871,
      "verb": 1872,
      "schnit": 1873,
      "tiert": 1874,
      "kten": 1875,
      "ĠGemeinschaft": 1876,
      "lex": 1877,
      "iga": 1878,
      "Ġwoll": 1879,
      "orn": 1880,
      "ĠhÃ¶": 1881,
      "bahn": 1882,
      "sted": 1883,
      "ĠLandes": 1884,
      "Ġem": 1885,
      "bildung": 1886,
      "Ġalso": 1887,
      "reg": 1888,
      "Ġmeine": 1889,
      "ruppen": 1890,
      "racht": 1891,
      "Ġerfolg": 1892,
      "ĠBest": 1893,
      "Ġvoll": 1894,
      "schied": 1895,
      "ĠPolizei": 1896,
      "ity": 1897,
      "leist": 1898,
      "ĠLi": 1899,
      "arr": 1900,
      "Ġarb": 1901,
      "rist": 1902,
      "ey": 1903,
      "Ġwegen": 1904,
      "heits": 1905,
      "els": 1906,
      ".)": 1907,
      "isk": 1908,
      "ice": 1909,
      "ĠFuÃŁ": 1910,
      "ĠGew": 1911,
      "ÃŁnahmen": 1912,
      "asst": 1913,
      "ĠSeite": 1914,
      "Ġeinz": 1915,
      "ĠBed": 1916,
      "annte": 1917,
      "23": 1918,
      "grÃ¼n": 1919,
      "Ġschw": 1920,
      "ublik": 1921,
      "inen": 1922,
      "je": 1923,
      "ĠMÃ¼n": 1924,
      "echn": 1925,
      "straÃŁe": 1926,
      "Ġletzten": 1927,
      "Ġnot": 1928,
      "echs": 1929,
      "Ġsicher": 1930,
      "ex": 1931,
      "ĠFest": 1932,
      "ĠParlament": 1933,
      "ĠauÃŁer": 1934,
      "ĠDaten": 1935,
      "Ġstehen": 1936,
      "ĠForm": 1937,
      "ĠÃ¼": 1938,
      "Ġwerde": 1939,
      "aur": 1940,
      "Ã¤chte": 1941,
      "zeichnet": 1942,
      "Ġwissen": 1943,
      "ĠFrauen": 1944,
      "Ġ28": 1945,
      "ommer": 1946,
      "Ab": 1947,
      "platz": 1948,
      "ĠStand": 1949,
      "Ġth": 1950,
      "Ġwollen": 1951,
      "ĠGott": 1952,
      "treten": 1953,
      "gesamt": 1954,
      "ĠFebruar": 1955,
      "gegen": 1956,
      "ĠerklÃ¤r": 1957,
      "ĠNieder": 1958,
      "ose": 1959,
      "werb": 1960,
      "arm": 1961,
      "ĠgroÃŁen": 1962,
      "ep": 1963,
      "Ġ2018": 1964,
      "ĠGegen": 1965,
      "ĠLebens": 1966,
      "bert": 1967,
      "ct": 1968,
      "schlag": 1969,
      "ologie": 1970,
      "ĠPr": 1971,
      "Ġdavon": 1972,
      "Ġeinige": 1973,
      "Ġgehen": 1974,
      "Ã¤tze": 1975,
      "WG": 1976,
      "gesetzt": 1977,
      "ĠSicher": 1978,
      "26": 1979,
      "hand": 1980,
      "ĠMillionen": 1981,
      "Ġallen": 1982,
      "Ġ27": 1983,
      "ator": 1984,
      "ĠZahl": 1985,
      "Ã¡": 1986,
      "ichten": 1987,
      "zung": 1988,
      "ĠFol": 1989,
      "ons": 1990,
      "ĠRegion": 1991,
      "erst": 1992,
      "ĠgroÃŁe": 1993,
      "Ġerz": 1994,
      "dete": 1995,
      "ĠlÃ¤": 1996,
      "ĠFall": 1997,
      "wirtschaft": 1998,
      "21": 1999,
      "staaten": 2000,
      "Ġ2010": 2001,
      "aÃŁ": 2002,
      "ĠWahl": 2003,
      "Ġor": 2004,
      "ckt": 2005,
      "Ġtra": 2006,
      "Ġdessen": 2007,
      "Ġschne": 2008,
      "ĠSaison": 2009,
      "Ġeinmal": 2010,
      "ĠWe": 2011,
      "agt": 2012,
      "alb": 2013,
      "Ġhast": 2014,
      "Ġel": 2015,
      "uÃŁen": 2016,
      "ĠKap": 2017,
      "olf": 2018,
      "ĠEntscheid": 2019,
      "ennen": 2020,
      "rauch": 2021,
      "Ġsollen": 2022,
      "lungen": 2023,
      "ĠÂ»": 2024,
      "ĠNÃ¤chte": 2025,
      "ath": 2026,
      "Ã¶st": 2027,
      "schw": 2028,
      "kunft": 2029,
      "ĠFlug": 2030,
      "ĠWeg": 2031,
      "Ġ29": 2032,
      "urs": 2033,
      "Ġihrem": 2034,
      "ogra": 2035,
      "gestellt": 2036,
      "wort": 2037,
      "28": 2038,
      "erin": 2039,
      "Ġzahl": 2040,
      "oc": 2041,
      "ĠBeh": 2042,
      "Ġ26": 2043,
      "ĠRechts": 2044,
      "sh": 2045,
      "ĠBuch": 2046,
      "ĠZwei": 2047,
      "uhr": 2048,
      "Ġerw": 2049,
      "Ġoffen": 2050,
      "zieh": 2051,
      "annten": 2052,
      "ĠAd": 2053,
      "red": 2054,
      "einander": 2055,
      "tt": 2056,
      "ĠdafÃ¼r": 2057,
      "lauf": 2058,
      "schluss": 2059,
      "Dies": 2060,
      "ES": 2061,
      "ĠkÃ¶nnte": 2062,
      "stoff": 2063,
      "ĠKunst": 2064,
      "ain": 2065,
      "ĠHil": 2066,
      "ĠJugend": 2067,
      "ĠLu": 2068,
      "bereich": 2069,
      "\")": 2070,
      "atÃ¼r": 2071,
      "ismus": 2072,
      "mo": 2073,
      "ĠAll": 2074,
      "ĠwÃ¤re": 2075,
      "ĠBar": 2076,
      "Ġpolit": 2077,
      "stens": 2078,
      "Ġbesser": 2079,
      "27": 2080,
      "Ġkurz": 2081,
      "ampf": 2082,
      "ĠhÃ¤": 2083,
      "one": 2084,
      "Ã¼hl": 2085,
      "que": 2086,
      "ika": 2087,
      "tlich": 2088,
      "Ġtun": 2089,
      "ĠMarkt": 2090,
      "Ġ[": 2091,
      "spro": 2092,
      "ote": 2093,
      "Ġentwick": 2094,
      "minister": 2095,
      "elle": 2096,
      "Ġerh": 2097,
      "ĠChrist": 2098,
      "inger": 2099,
      "Ġra": 2100,
      "andelt": 2101,
      "assung": 2102,
      "recht": 2103,
      "Ġverm": 2104,
      "li": 2105,
      "Ġihnen": 2106,
      "ĠBel": 2107,
      "schule": 2108,
      "29": 2109,
      "Ġ...": 2110,
      "Ġinternational": 2111,
      "EI": 2112,
      "chten": 2113,
      "rÃ¤n": 2114,
      "AN": 2115,
      "ĠEuropa": 2116,
      "Ġinner": 2117,
      "ester": 2118,
      "reit": 2119,
      "igten": 2120,
      "Ġeurop": 2121,
      "Ġschwer": 2122,
      "ign": 2123,
      "ĠGeld": 2124,
      "Ã¼ss": 2125,
      "ĠZug": 2126,
      "ĠgehÃ¶rt": 2127,
      "ĠJahres": 2128,
      "Ġbekannt": 2129,
      "schul": 2130,
      "Ġ2008": 2131,
      "ĠFamilie": 2132,
      "anzÃ¶s": 2133,
      "Ġerhalten": 2134,
      "are": 2135,
      "ĠEis": 2136,
      "nehmen": 2137,
      "eitet": 2138,
      "irtschafts": 2139,
      "Ġbede": 2140,
      "ĠIhre": 2141,
      "ondere": 2142,
      "heiten": 2143,
      "zogen": 2144,
      "osition": 2145,
      "isches": 2146,
      "urt": 2147,
      "ĠNational": 2148,
      "alter": 2149,
      "ure": 2150,
      "ase": 2151,
      "ichtet": 2152,
      "uter": 2153,
      "Ġebenfalls": 2154,
      "Ġ100": 2155,
      "ĠVerl": 2156,
      "arbeiter": 2157,
      "endet": 2158,
      "ĠEm": 2159,
      "wahl": 2160,
      "ĠSk": 2161,
      "Man": 2162,
      "Ġ2011": 2163,
      "Ġabge": 2164,
      "Ber": 2165,
      "ull": 2166,
      "reffen": 2167,
      "sol": 2168,
      "ail": 2169,
      "lichkeit": 2170,
      "Ġsagen": 2171,
      "Ġwichtig": 2172,
      "Ġ2009": 2173,
      "ĠheiÃŁ": 2174,
      "ve": 2175,
      "achte": 2176,
      "Ġwirk": 2177,
      "Ġlange": 2178,
      "ĠFinanz": 2179,
      "kreis": 2180,
      "vo": 2181,
      "Ġging": 2182,
      "Nein": 2183,
      "entr": 2184,
      "Ġkm": 2185,
      "ĠGener": 2186,
      "ritten": 2187,
      "Ġed": 2188,
      "Ã¶lker": 2189,
      "ĠLehr": 2190,
      "Ġweit": 2191,
      "ĠHin": 2192,
      "Um": 2193,
      "ied": 2194,
      "son": 2195,
      "lan": 2196,
      "vest": 2197,
      "ĠBahn": 2198,
      "ĠDu": 2199,
      "ĠMet": 2200,
      "ĠDienst": 2201,
      "ĠZiel": 2202,
      "llt": 2203,
      "ema": 2204,
      "of": 2205,
      "schung": 2206,
      "Ġdah": 2207,
      "cker": 2208,
      "ĠSu": 2209,
      "Ã¤nge": 2210,
      "Ġ2014": 2211,
      "ĠAu": 2212,
      "Ġit": 2213,
      "Ġle": 2214,
      "ĠSystem": 2215,
      "ĠErgeb": 2216,
      "ĠNew": 2217,
      "ĠPolitik": 2218,
      "Ġ50": 2219,
      "istor": 2220,
      "uche": 2221,
      "alitÃ¤t": 2222,
      "ĠDon": 2223,
      "weit": 2224,
      "Wer": 2225,
      "gehen": 2226,
      "eum": 2227,
      "âĢĻ": 2228,
      "besondere": 2229,
      "opf": 2230,
      "eigt": 2231,
      "emal": 2232,
      "fel": 2233,
      "ĠKirche": 2234,
      "Ġir": 2235,
      "Ġern": 2236,
      "sl": 2237,
      "ative": 2238,
      "ffiz": 2239,
      "tragen": 2240,
      "Ġunsere": 2241,
      "eisten": 2242,
      "ĠII": 2243,
      "Ġdeutschen": 2244,
      "Ġjewei": 2245,
      "Ġ2007": 2246,
      "Ġ(\"": 2247,
      "ĠschlieÃŁ": 2248,
      "Ġgeben": 2249,
      "ĠSohn": 2250,
      "Ġbew": 2251,
      "Ġglau": 2252,
      "Ġinter": 2253,
      "ppen": 2254,
      "bel": 2255,
      "ĠTechn": 2256,
      "Ġheraus": 2257,
      "Ġx": 2258,
      "iew": 2259,
      "ĠSport": 2260,
      "ĠX": 2261,
      "Ġ2013": 2262,
      "Ã¤ude": 2263,
      "ĠPrÃ¤sident": 2264,
      "Hier": 2265,
      "licht": 2266,
      "Ġy": 2267,
      "res": 2268,
      "ĠzunÃ¤chst": 2269,
      "schein": 2270,
      "ranken": 2271,
      "ielleicht": 2272,
      "Ġ2012": 2273,
      "rÃ¤ge": 2274,
      "Ġbzw": 2275,
      "einer": 2276,
      "nehmer": 2277,
      "gn": 2278,
      "gte": 2279,
      "ĠVerkehr": 2280,
      "Ihr": 2281,
      "ider": 2282,
      "setzung": 2283,
      "Ã¼l": 2284,
      "Ġanderem": 2285,
      "Ġmacht": 2286,
      "reise": 2287,
      "Ġne": 2288,
      "Ġentst": 2289,
      "ĠPh": 2290,
      "wendung": 2291,
      "ilt": 2292,
      "stelle": 2293,
      "Ġwohl": 2294,
      "ĠEinsatz": 2295,
      "EWG": 2296,
      "oss": 2297,
      "ĠSchwei": 2298,
      "49": 2299,
      "ĠnÃ¤ch": 2300,
      "akt": 2301,
      "ette": 2302,
      "Ġhinter": 2303,
      "ĠBay": 2304,
      "Ġ31": 2305,
      "Ġhoch": 2306,
      "utt": 2307,
      "ĠAt": 2308,
      "ĠGel": 2309,
      "ĠTeam": 2310,
      "anten": 2311,
      "ĠMÃ¤n": 2312,
      "iels": 2313,
      "markt": 2314,
      "ĠBur": 2315,
      "Ġallerdings": 2316,
      "ĠNatur": 2317,
      "ĠFern": 2318,
      "Ã¤mpf": 2319,
      "ĠGeschÃ¤f": 2320,
      "45": 2321,
      "UN": 2322,
      "Ġbefindet": 2323,
      "ĠRegel": 2324,
      "ĠHol": 2325,
      "Ġwollte": 2326,
      "die": 2327,
      "linie": 2328,
      "Ġgemacht": 2329,
      "nete": 2330,
      "Ã¤ische": 2331,
      "ĠSan": 2332,
      "kr": 2333,
      "ĠSozial": 2334,
      "ĠOl": 2335,
      "Ġzweiten": 2336,
      "fung": 2337,
      "sitzen": 2338,
      "Ġ#": 2339,
      "bed": 2340,
      "sy": 2341,
      "gebiet": 2342,
      "ca": 2343,
      "ĠBeispiel": 2344,
      "Ġbist": 2345,
      "ĠRegierung": 2346,
      "schuss": 2347,
      "altung": 2348,
      "ĠSal": 2349,
      "tim": 2350,
      "rotz": 2351,
      "Ġreg": 2352,
      "__": 2353,
      "ĠWochen": 2354,
      "onnen": 2355,
      "Ġneben": 2356,
      "ierungs": 2357,
      "uelle": 2358,
      "ly": 2359,
      "ĠVerwalt": 2360,
      "Ġsozial": 2361,
      "teilung": 2362,
      "Ġfast": 2363,
      "ĠSer": 2364,
      "ĠFrage": 2365,
      "Ġehemal": 2366,
      "ergie": 2367,
      "ĠKrieg": 2368,
      "reiche": 2369,
      "ĠSam": 2370,
      "hÃ¤ng": 2371,
      "ĠPartei": 2372,
      "eint": 2373,
      "War": 2374,
      "stÃ¼ck": 2375,
      "ix": 2376,
      "ka": 2377,
      "inner": 2378,
      "verkehr": 2379,
      "ĠRep": 2380,
      "ĠKultur": 2381,
      "Ġeigenen": 2382,
      "Ġur": 2383,
      "ĠMÃ¶glich": 2384,
      "wehr": 2385,
      "ĠTod": 2386,
      "ĠFamilien": 2387,
      "bend": 2388,
      "ohann": 2389,
      "alle": 2390,
      "Ã¤ren": 2391,
      "ĠMitgliedstaaten": 2392,
      "ĠProf": 2393,
      "andels": 2394,
      "ise": 2395,
      "achten": 2396,
      "ĠJa": 2397,
      "ĠLuft": 2398,
      "Ġhab": 2399,
      "ĠUnion": 2400,
      "ork": 2401,
      "besser": 2402,
      "reicht": 2403,
      "ĠFÃ¼r": 2404,
      "Ġgerade": 2405,
      "aler": 2406,
      "ĠgegenÃ¼ber": 2407,
      "Ġbil": 2408,
      "Ġ2006": 2409,
      "ĠhÃ¤tte": 2410,
      "ĠverfÃ¼": 2411,
      "Ã¤ftig": 2412,
      "ĠPat": 2413,
      "ĠWirtschafts": 2414,
      "ĠInformationen": 2415,
      "Zu": 2416,
      "Ġper": 2417,
      "ilder": 2418,
      "ĠDan": 2419,
      "34": 2420,
      "ĠTur": 2421,
      "eder": 2422,
      "ĠâĤ¬": 2423,
      "ĠUSA": 2424,
      "itÃ¤ten": 2425,
      "tieren": 2426,
      "ettbe": 2427,
      "Ġwelche": 2428,
      "ĠGeschichte": 2429,
      "ĠKreis": 2430,
      "etzen": 2431,
      "aw": 2432,
      "zess": 2433,
      "druck": 2434,
      "rik": 2435,
      "ĠAls": 2436,
      "wohner": 2437,
      "Ġleben": 2438,
      "ĠAnt": 2439,
      "ĠIt": 2440,
      "ĠProgramm": 2441,
      "Ã¤che": 2442,
      "ĠFir": 2443,
      "ĠRates": 2444,
      "lang": 2445,
      "ĠMil": 2446,
      "Ġbesteht": 2447,
      "Ġsollten": 2448,
      "ntag": 2449,
      "**": 2450,
      "ĠmÃ¶chte": 2451,
      "pa": 2452,
      "Ġzwar": 2453,
      "Ã¶rper": 2454,
      "ĠTel": 2455,
      "ĠTran": 2456,
      "Ġakt": 2457,
      "ĠGrÃ¼n": 2458,
      "ĠHotel": 2459,
      "dorf": 2460,
      "ĠBetrieb": 2461,
      "reiben": 2462,
      "ĠRad": 2463,
      "ĠWest": 2464,
      "ĠdÃ¼r": 2465,
      "Ã¶rt": 2466,
      "uchs": 2467,
      "Ġweniger": 2468,
      "Ġsechs": 2469,
      "ĠPM": 2470,
      "ĠVater": 2471,
      "Ġerhielt": 2472,
      "Ġeinzel": 2473,
      "ĠHam": 2474,
      "Ġwahr": 2475,
      "staat": 2476,
      "ĠBas": 2477,
      "etten": 2478,
      "uren": 2479,
      "35": 2480,
      "&#": 2481,
      "ĠsÃ¼d": 2482,
      "ĠEntscheidung": 2483,
      "Ġbestimm": 2484,
      "indung": 2485,
      "iker": 2486,
      "ipp": 2487,
      "tels": 2488,
      "ari": 2489,
      "40": 2490,
      "rache": 2491,
      "Ġgilt": 2492,
      "Ġoft": 2493,
      "pen": 2494,
      "beh": 2495,
      "hel": 2496,
      "Ġgar": 2497,
      "ĠTor": 2498,
      "hle": 2499,
      "ĠLeist": 2500,
      "ĠBerg": 2501,
      "Ġdan": 2502,
      "ĠKn": 2503,
      "teilt": 2504,
      "ektor": 2505,
      "ĠSommer": 2506,
      "ets": 2507,
      "Ġstell": 2508,
      "ĠTitel": 2509,
      "ĠRom": 2510,
      "glichen": 2511,
      "ĠHeim": 2512,
      "etter": 2513,
      "hang": 2514,
      "cl": 2515,
      "weis": 2516,
      "IS": 2517,
      "ev": 2518,
      "gef": 2519,
      "sport": 2520,
      "Ġverschiedenen": 2521,
      "uen": 2522,
      "ĠMutter": 2523,
      "schnitt": 2524,
      "ĠKat": 2525,
      "scht": 2526,
      "iges": 2527,
      "ĠReich": 2528,
      "ĠBeruf": 2529,
      "Ġbegann": 2530,
      "ĠPreis": 2531,
      "Ġgenau": 2532,
      "ĠFeuer": 2533,
      "antwort": 2534,
      "ire": 2535,
      "Ġ2017": 2536,
      "Doch": 2537,
      "ĠBand": 2538,
      "ĠTex": 2539,
      "33": 2540,
      "ins": 2541,
      "ĠDem": 2542,
      "ĠunterstÃ¼t": 2543,
      "Ġumf": 2544,
      "atÃ¼rlich": 2545,
      "ellen": 2546,
      "Ġinsbesondere": 2547,
      "ĠWerk": 2548,
      "Ġvielen": 2549,
      "ĠNacht": 2550,
      "ĠUniversitÃ¤t": 2551,
      "Ġstar": 2552,
      "ĠProjekt": 2553,
      "line": 2554,
      "ĠDi": 2555,
      "ĠAng": 2556,
      "eitete": 2557,
      "dre": 2558,
      "Ġwenig": 2559,
      "ĠStraÃŁe": 2560,
      "loss": 2561,
      "ĠStaats": 2562,
      "was": 2563,
      "Ġjeder": 2564,
      "mÃ¶glich": 2565,
      "ĠBÃ¼": 2566,
      "Seit": 2567,
      "nder": 2568,
      "Ġzehn": 2569,
      "ĠAnfang": 2570,
      "geh": 2571,
      "hein": 2572,
      "lungs": 2573,
      "Ġ'": 2574,
      "ĠCl": 2575,
      "ĠÃ¶ffent": 2576,
      "dienst": 2577,
      "frei": 2578,
      "ĠBen": 2579,
      "ĠBesuch": 2580,
      "unkte": 2581,
      "ktionen": 2582,
      "Ġsogar": 2583,
      "Ġmehrere": 2584,
      "iter": 2585,
      "ee": 2586,
      "ĠPlan": 2587,
      "Ġschnell": 2588,
      "ĠEigen": 2589,
      "Ġkeinen": 2590,
      "Ġseien": 2591,
      "Ġbesonders": 2592,
      "Ġinsgesamt": 2593,
      "ilom": 2594,
      "part": 2595,
      "ienen": 2596,
      "oder": 2597,
      "ĠVon": 2598,
      "Ġklar": 2599,
      "Th": 2600,
      "ĠMaÃŁnahmen": 2601,
      "leben": 2602,
      "liegen": 2603,
      "Ġget": 2604,
      "IN": 2605,
      "Ġbisher": 2606,
      "zÃ¼": 2607,
      "ĠHÃ¶he": 2608,
      "ossen": 2609,
      "ĠKom": 2610,
      "rÃ¼ck": 2611,
      "ĠfranzÃ¶s": 2612,
      "ĠFried": 2613,
      "Ġwich": 2614,
      "ko": 2615,
      "Ġmusste": 2616,
      "vÃ¶lker": 2617,
      "Ã¶ren": 2618,
      "ĠFach": 2619,
      "iti": 2620,
      "ool": 2621,
      "ĠMont": 2622,
      "Ġ2005": 2623,
      "ĠWien": 2624,
      "ĠWissen": 2625,
      "ĠRes": 2626,
      "aul": 2627,
      "blick": 2628,
      "Ġnational": 2629,
      "Ġgewesen": 2630,
      "oph": 2631,
      "des": 2632,
      "oto": 2633,
      "EL": 2634,
      "Ġzie": 2635,
      "Ġkom": 2636,
      "ĠTour": 2637,
      "Ġrecht": 2638,
      "ĠAlter": 2639,
      "ĠTÃ¼r": 2640,
      "stat": 2641,
      "etzte": 2642,
      "ĠFuÃŁball": 2643,
      "rigen": 2644,
      "ĠSitz": 2645,
      "wÃ¤r": 2646,
      "ief": 2647,
      "PD": 2648,
      "Ġinnerhalb": 2649,
      "ĠGeh": 2650,
      "ĠStre": 2651,
      "âĢŀ": 2652,
      "ums": 2653,
      "tler": 2654,
      "kir": 2655,
      "ĠverÃ¶ffentlich": 2656,
      "ĠFer": 2657,
      "richten": 2658,
      "All": 2659,
      "fort": 2660,
      ".\"": 2661,
      "Ġbietet": 2662,
      "tiger": 2663,
      "zeitig": 2664,
      "uchte": 2665,
      "ĠRu": 2666,
      "usÃ¤tz": 2667,
      "Ġwirklich": 2668,
      "ĠHe": 2669,
      "Ġdi": 2670,
      "36": 2671,
      "utzt": 2672,
      "richtung": 2673,
      "itter": 2674,
      "ĠWie": 2675,
      "ĠGeschÃ¤fts": 2676,
      "Ġro": 2677,
      "Ġend": 2678,
      "zimmer": 2679,
      "ĠSel": 2680,
      "Al": 2681,
      "sie": 2682,
      "verein": 2683,
      "eier": 2684,
      "ĠRaum": 2685,
      "rt": 2686,
      "rieden": 2687,
      "nach": 2688,
      "ĠKÃ¼": 2689,
      "ĠIs": 2690,
      "use": 2691,
      "Ġstark": 2692,
      "Komm": 2693,
      "unt": 2694,
      "ĠGesamt": 2695,
      "da": 2696,
      "ĠMich": 2697,
      "Ġspez": 2698,
      "Ġnahm": 2699,
      "Ġerg": 2700,
      "48": 2701,
      "39": 2702,
      "ance": 2703,
      "ĠDar": 2704,
      "ĠGruppe": 2705,
      "ĠFÃ¤": 2706,
      "Ġgesam": 2707,
      "ĠRolle": 2708,
      "Unter": 2709,
      "erne": 2710,
      "ĠLa": 2711,
      "hei": 2712,
      "Ġbed": 2713,
      "ĠDiese": 2714,
      "ĠfrÃ¼her": 2715,
      "ĠFreund": 2716,
      "sehen": 2717,
      "frage": 2718,
      "JÃ¤hr": 2719,
      "Ãľber": 2720,
      "ĠFrÃ¼": 2721,
      "ĠPark": 2722,
      "schriften": 2723,
      "gangenen": 2724,
      "ĠOb": 2725,
      "ĠNe": 2726,
      "Ġbr": 2727,
      "ĠUmwelt": 2728,
      "ingungen": 2729,
      "ĠKomp": 2730,
      "Ã¤ndert": 2731,
      "arbeiten": 2732,
      "Ġ40": 2733,
      "anken": 2734,
      "âĢľ.": 2735,
      "Po": 2736,
      "orten": 2737,
      "ettbewerb": 2738,
      "ĠschÃ¶n": 2739,
      "ula": 2740,
      "ĠFrankreich": 2741,
      "ragen": 2742,
      "wand": 2743,
      "ĠCar": 2744,
      "ĠGast": 2745,
      "atten": 2746,
      "ĠDeutschen": 2747,
      "uell": 2748,
      "ĠRecht": 2749,
      "Ġqu": 2750,
      "tschaft": 2751,
      "ĠProduktion": 2752,
      "ĠEnergie": 2753,
      "Ġseines": 2754,
      "Ġeuch": 2755,
      "system": 2756,
      "Ġdeutlich": 2757,
      "ichter": 2758,
      "ĠÃĸsterreich": 2759,
      "Ġempf": 2760,
      "ufe": 2761,
      "198": 2762,
      "ĠJahrhundert": 2763,
      "ĠTr": 2764,
      "Ġschl": 2765,
      "ĠArch": 2766,
      "gesehen": 2767,
      "ĠOst": 2768,
      "ĠPer": 2769,
      "Kl": 2770,
      "âĢľ,": 2771,
      "Ġtechn": 2772,
      "orte": 2773,
      "Â«": 2774,
      "Ġweiteren": 2775,
      "ĠÃ¶": 2776,
      "wagen": 2777,
      "ĠJohann": 2778,
      "utzen": 2779,
      "voll": 2780,
      "reifen": 2781,
      "31": 2782,
      "Ġfindet": 2783,
      "ĠZw": 2784,
      "laub": 2785,
      "liches": 2786,
      "steller": 2787,
      "Ġzeigt": 2788,
      "ĠAuto": 2789,
      "ĠIntern": 2790,
      "Ġliegen": 2791,
      "Mar": 2792,
      "uellen": 2793,
      "Ġmeisten": 2794,
      "ĠVertrag": 2795,
      "achst": 2796,
      "krieg": 2797,
      "ĠDa": 2798,
      "ritte": 2799,
      "ĠMinuten": 2800,
      "piel": 2801,
      "ĠAnge": 2802,
      "nerstag": 2803,
      ".,": 2804,
      "ja": 2805,
      "scheiden": 2806,
      "Ġsieht": 2807,
      "anzen": 2808,
      "anc": 2809,
      "US": 2810,
      "ĠWeiter": 2811,
      "38": 2812,
      "ĠEinzel": 2813,
      "Ġstand": 2814,
      "Ġ2000": 2815,
      "Ã¼nstler": 2816,
      "spl": 2817,
      "neten": 2818,
      "ymp": 2819,
      "wiesen": 2820,
      "Ġunterschied": 2821,
      "stre": 2822,
      "37": 2823,
      "mb": 2824,
      "sn": 2825,
      "Dann": 2826,
      "ital": 2827,
      "ael": 2828,
      "ĠGebiet": 2829,
      "ON": 2830,
      "ĠheiÃŁt": 2831,
      "ĠZusammenarbeit": 2832,
      "such": 2833,
      "ĠPhil": 2834,
      "ĠThema": 2835,
      "Ã¤um": 2836,
      "enzen": 2837,
      "oti": 2838,
      "Ġind": 2839,
      "ĠNor": 2840,
      "ĠprÃ¤": 2841,
      "ry": 2842,
      "eitag": 2843,
      "ĠWert": 2844,
      "radition": 2845,
      "ĠMitarbeiter": 2846,
      "Ġgl": 2847,
      "ĠPort": 2848,
      "ĠRest": 2849,
      "ĠâĢł": 2850,
      "zip": 2851,
      "ĠMehr": 2852,
      "ong": 2853,
      "Ġhinaus": 2854,
      "AT": 2855,
      "ĠVerfÃ¼": 2856,
      "ode": 2857,
      "Ġblie": 2858,
      "Ġkonnten": 2859,
      "Ent": 2860,
      "ersÃ¶n": 2861,
      "ĠStraÃŁen": 2862,
      "otor": 2863,
      "Ã¤chlich": 2864,
      "ummer": 2865,
      "ĠAlt": 2866,
      "Ġ2004": 2867,
      "aterial": 2868,
      "Ã¤hlen": 2869,
      "ĠgegrÃ¼n": 2870,
      "ĠSeiten": 2871,
      "ochter": 2872,
      "Ġunserer": 2873,
      "mel": 2874,
      "own": 2875,
      "Ġweg": 2876,
      "fÃ¤h": 2877,
      "Ġlos": 2878,
      "ĠLauf": 2879,
      "ĠÃ¼b": 2880,
      "ĠBru": 2881,
      "ĠHerz": 2882,
      "ĠRichtung": 2883,
      "auen": 2884,
      "vin": 2885,
      "ĠfÃ¼hrt": 2886,
      "aup": 2887,
      "ĠTage": 2888,
      "ĠItalien": 2889,
      "ĠStell": 2890,
      "ĠKin": 2891,
      "Ġaufgrund": 2892,
      "EG": 2893,
      "istischen": 2894,
      "wirk": 2895,
      "ĠSen": 2896,
      "geber": 2897,
      "ĠOrganis": 2898,
      "igte": 2899,
      "ĠSchutz": 2900,
      "ĠSh": 2901,
      "Ãĸ": 2902,
      "Dan": 2903,
      "ĠVerfahren": 2904,
      "Ã¼ler": 2905,
      "AR": 2906,
      "halts": 2907,
      "ĠÃĦnder": 2908,
      "omit": 2909,
      "Ġnehmen": 2910,
      "ĠVolks": 2911,
      "ĠMÃ¼nchen": 2912,
      "Be": 2913,
      "ehm": 2914,
      "Ġbevor": 2915,
      "geord": 2916,
      "32": 2917,
      "ĠStat": 2918,
      "gten": 2919,
      "under": 2920,
      "weiter": 2921,
      "ĠMeter": 2922,
      "ĠdarÃ¼ber": 2923,
      "anien": 2924,
      "Denn": 2925,
      "ĠBedeut": 2926,
      "rift": 2927,
      "ĠLage": 2928,
      "Ġgewann": 2929,
      "igkeiten": 2930,
      "ĠRa": 2931,
      "isse": 2932,
      "len": 2933,
      "Ġgegeben": 2934,
      "nahm": 2935,
      "ĠHilfe": 2936,
      "ĠVert": 2937,
      "ÃĦ": 2938,
      "Ġjeden": 2939,
      "UNG": 2940,
      "ĠPap": 2941,
      "ĠWeb": 2942,
      "ÃŃ": 2943,
      "ana": 2944,
      "wig": 2945,
      "ĠAbend": 2946,
      "ĠKommun": 2947,
      "rÃ¤gt": 2948,
      "Ġkleinen": 2949,
      "Ġdirekt": 2950,
      "ĠDorf": 2951,
      "ieten": 2952,
      "Ġei": 2953,
      "ĠFÃ¶rder": 2954,
      "ĠIndustrie": 2955,
      "ĠWoche": 2956,
      "ĠBevÃ¶lker": 2957,
      "uk": 2958,
      "ĠMeister": 2959,
      "gruppe": 2960,
      "Ġfand": 2961,
      "yr": 2962,
      "It": 2963,
      "ĠZimmer": 2964,
      "hard": 2965,
      "ĠStaaten": 2966,
      "wegen": 2967,
      "Ġbleiben": 2968,
      "Ġ189": 2969,
      "ĠAlb": 2970,
      "ilometer": 2971,
      "km": 2972,
      "krÃ¤": 2973,
      "ĠSchiff": 2974,
      "Ġangeb": 2975,
      "ĠDien": 2976,
      "Ġform": 2977,
      "ĠName": 2978,
      "ĠBeit": 2979,
      "55": 2980,
      "ĠwÃ¼rden": 2981,
      "rug": 2982,
      "jp": 2983,
      "Ġfinanz": 2984,
      "ĠUnterstÃ¼t": 2985,
      "burger": 2986,
      "uÃŁerdem": 2987,
      "onen": 2988,
      "duz": 2989,
      "oe": 2990,
      "eiger": 2991,
      "ĠStr": 2992,
      "ĠFC": 2993,
      "ĠWald": 2994,
      "stieg": 2995,
      "mÃ¶": 2996,
      "ĠBad": 2997,
      "agement": 2998,
      "46": 2999,
      "gem": 3000,
      "ĠMag": 3001,
      "str": 3002,
      "Ġerwar": 3003,
      "ĠKan": 3004,
      "Ġkleine": 3005,
      "ĠBra": 3006,
      "ome": 3007,
      "ĠKosten": 3008,
      "80": 3009,
      "Ġvergangenen": 3010,
      "ĠKind": 3011,
      "uh": 3012,
      "ĠMark": 3013,
      "Ġklein": 3014,
      "ĠBedeutung": 3015,
      "alif": 3016,
      "ĠlÃ¤sst": 3017,
      "TC": 3018,
      "ĠNÃ¤": 3019,
      "Ġrel": 3020,
      "ufig": 3021,
      "fahrt": 3022,
      "ĠPeter": 3023,
      "rid": 3024,
      "ĠKraft": 3025,
      "ĠGebÃ¤ude": 3026,
      "omin": 3027,
      "Wo": 3028,
      "ammer": 3029,
      "wesen": 3030,
      "hren": 3031,
      "ĠIde": 3032,
      "weisen": 3033,
      "atte": 3034,
      "geln": 3035,
      "immung": 3036,
      "Ġerstmals": 3037,
      "onn": 3038,
      "ĠInsel": 3039,
      "47": 3040,
      "Ġdaher": 3041,
      "okrat": 3042,
      "itÃ¤r": 3043,
      "ĠMitte": 3044,
      "schlÃ¤": 3045,
      "schinen": 3046,
      "ĠGesetz": 3047,
      "arf": 3048,
      "Ġgesagt": 3049,
      "hausen": 3050,
      "deten": 3051,
      "ST": 3052,
      "unk": 3053,
      "ĠschlieÃŁlich": 3054,
      "haupt": 3055,
      "urr": 3056,
      "reuz": 3057,
      "Ġwirtschaft": 3058,
      "uth": 3059,
      "En": 3060,
      "par": 3061,
      "amit": 3062,
      "aly": 3063,
      "ĠWieder": 3064,
      "zuf": 3065,
      "ĠLei": 3066,
      "Ġhervor": 3067,
      "ehe": 3068,
      "ĠBi": 3069,
      "wÃ¼r": 3070,
      "aufen": 3071,
      "Ã¶sung": 3072,
      "bene": 3073,
      "ci": 3074,
      "Ġsowohl": 3075,
      "Ġfolgenden": 3076,
      "ĠFÃ¼hr": 3077,
      "RL": 3078,
      "baren": 3079,
      "liga": 3080,
      "ĠFolge": 3081,
      "sprÃ¼n": 3082,
      "Ã¼ndung": 3083,
      "ĠEle": 3084,
      "Ġstellt": 3085,
      "fest": 3086,
      "ĠHel": 3087,
      "ĠMinister": 3088,
      "ĠLÃ¤ndern": 3089,
      "Ġat": 3090,
      "ĠAust": 3091,
      "pfer": 3092,
      "geschlossen": 3093,
      "utet": 3094,
      "Ġlin": 3095,
      "prÃ¼": 3096,
      "59": 3097,
      "Ã¶t": 3098,
      "gor": 3099,
      "Ġpass": 3100,
      "ĠKunden": 3101,
      "ĠMitglieder": 3102,
      "ĠInvest": 3103,
      "Ġheu": 3104,
      "esent": 3105,
      "ikanischen": 3106,
      "Â°": 3107,
      "itt": 3108,
      "oppel": 3109,
      "60": 3110,
      "Ġ01": 3111,
      "ĠÃ¤l": 3112,
      "ement": 3113,
      "ĠSonntag": 3114,
      "ĠMÃ¤nner": 3115,
      "ativen": 3116,
      "Ġspielte": 3117,
      "Ġbitte": 3118,
      "Alle": 3119,
      "2015": 3120,
      "ĠLÃ¤nder": 3121,
      "ĠStein": 3122,
      "ahren": 3123,
      "ĠStunden": 3124,
      "Ġdeutsche": 3125,
      "wissen": 3126,
      "folge": 3127,
      "ĠEng": 3128,
      "ĠTochter": 3129,
      "ĠnÃ¤chsten": 3130,
      "ĠVeranst": 3131,
      "44": 3132,
      "Ġbestehen": 3133,
      "Ġentfern": 3134,
      "spiels": 3135,
      "twoch": 3136,
      "ĠAmt": 3137,
      "Â²": 3138,
      "ĠNutz": 3139,
      "kn": 3140,
      "mme": 3141,
      "Ġfort": 3142,
      "ĠfÃ¼hrte": 3143,
      "plan": 3144,
      "Ġgute": 3145,
      "ĠEine": 3146,
      "urf": 3147,
      "furt": 3148,
      "ĠBeschÃ¤ftig": 3149,
      "ĠVerfÃ¼gung": 3150,
      "ish": 3151,
      "ĠMer": 3152,
      "ĠÂŃ": 3153,
      "ĠWil": 3154,
      "ĠPo": 3155,
      "Nicht": 3156,
      "Ġverwendet": 3157,
      "Ġentsprechen": 3158,
      "tegr": 3159,
      "ziehen": 3160,
      "Ġ09": 3161,
      "ĠHaf": 3162,
      "Ġaktiv": 3163,
      "wo": 3164,
      "Den": 3165,
      "ĠzusÃ¤tz": 3166,
      "apan": 3167,
      "Ġgefunden": 3168,
      "jekte": 3169,
      "ĠGesellschaft": 3170,
      "politik": 3171,
      "43": 3172,
      "Ġbezeichnet": 3173,
      "Ist": 3174,
      "Ġdein": 3175,
      "Ġbringen": 3176,
      "Ġwobei": 3177,
      "schlieÃŁend": 3178,
      "Ġstellen": 3179,
      "Ġjem": 3180,
      "ĠAugen": 3181,
      "56": 3182,
      "met": 3183,
      "Ã¼cke": 3184,
      "ĠSÃ¼": 3185,
      "Ġjeweils": 3186,
      "76": 3187,
      "ĠSicherheit": 3188,
      "ĠTem": 3189,
      "best": 3190,
      "fÃ¼hrer": 3191,
      "ware": 3192,
      "itze": 3193,
      "ĠFreitag": 3194,
      "schrift": 3195,
      "bare": 3196,
      "ĠErfolg": 3197,
      "ĠAuch": 3198,
      "komm": 3199,
      "ĠSol": 3200,
      "Zum": 3201,
      "41": 3202,
      "Ġthis": 3203,
      "ps": 3204,
      "vol": 3205,
      "Ġ08": 3206,
      "rÃ¤ger": 3207,
      "Ġkosten": 3208,
      "seite": 3209,
      "ĠFragen": 3210,
      "ĠInnen": 3211,
      "abel": 3212,
      "Ġleg": 3213,
      "ae": 3214,
      "âĢĶ": 3215,
      "Ġ1990": 3216,
      "Ġhel": 3217,
      "Oh": 3218,
      "Ġstud": 3219,
      "ĠMart": 3220,
      "ions": 3221,
      "abil": 3222,
      "Ch": 3223,
      "Ġacht": 3224,
      "iken": 3225,
      "Ġrech": 3226,
      "ument": 3227,
      "Ã¤nden": 3228,
      "erts": 3229,
      "arch": 3230,
      "Ġ000": 3231,
      "ĠEltern": 3232,
      "ĠGesund": 3233,
      "Gr": 3234,
      "Ġzuf": 3235,
      "buch": 3236,
      "fuhr": 3237,
      "ĠWinter": 3238,
      "ĠMode": 3239,
      "ages": 3240,
      "ĠWir": 3241,
      "Ġpl": 3242,
      "port": 3243,
      "statt": 3244,
      "tens": 3245,
      "ĠKr": 3246,
      "abhÃ¤ng": 3247,
      "ĠDes": 3248,
      "Ã¤tzen": 3249,
      "zte": 3250,
      "neut": 3251,
      "ĠFunktion": 3252,
      "inge": 3253,
      "produ": 3254,
      "ĠSchule": 3255,
      "omat": 3256,
      "ias": 3257,
      "Posted": 3258,
      "ikation": 3259,
      "aren": 3260,
      "van": 3261,
      "ĠPrÃ¤": 3262,
      "Ġfl": 3263,
      "Ġerreich": 3264,
      "ith": 3265,
      "ĠFlÃ¼": 3266,
      "urm": 3267,
      "ĠDr": 3268,
      "Ġverkauf": 3269,
      "izin": 3270,
      "Ġalten": 3271,
      "ĠDir": 3272,
      "Ã¤hn": 3273,
      "samm": 3274,
      "adem": 3275,
      "-/": 3276,
      "ĠeuropÃ¤ischen": 3277,
      "Ġwelt": 3278,
      "ĠEUR": 3279,
      "ars": 3280,
      "Bis": 3281,
      "zeichnung": 3282,
      "napp": 3283,
      "ĠPla": 3284,
      "Durch": 3285,
      "Ġsieben": 3286,
      "Ġgenannt": 3287,
      "ĠGÃ¤": 3288,
      "ĠAk": 3289,
      "........": 3290,
      "Ġschle": 3291,
      "ĠNetz": 3292,
      "Ġser": 3293,
      "ĠABl": 3294,
      "Ġeinigen": 3295,
      "gien": 3296,
      "zentrum": 3297,
      "57": 3298,
      "Ġdamals": 3299,
      "ĠBoden": 3300,
      "ĠhÃ¤tten": 3301,
      "folgt": 3302,
      "ĠmuÃŁ": 3303,
      "leistungen": 3304,
      "Ġvert": 3305,
      "zeuge": 3306,
      "rop": 3307,
      "llig": 3308,
      "Ã¶hn": 3309,
      "2016": 3310,
      "wasser": 3311,
      "onds": 3312,
      "ĠErd": 3313,
      "Re": 3314,
      "eien": 3315,
      "treter": 3316,
      "ĠhÃ¶ch": 3317,
      "ĠMannschaft": 3318,
      "ĠUnterstÃ¼tzung": 3319,
      "Ġabsol": 3320,
      "ĠTer": 3321,
      "itÃ¤ts": 3322,
      "ĠGo": 3323,
      "ĠHei": 3324,
      "Dar": 3325,
      "ĠGef": 3326,
      "ĠLeute": 3327,
      "ĠÃ¤hn": 3328,
      "ĠhÃ¶her": 3329,
      "Ġ07": 3330,
      "ĠfÃ¼hren": 3331,
      "ĠNÃ¤he": 3332,
      "schlieÃŁlich": 3333,
      "bin": 3334,
      "wir": 3335,
      "ĠBericht": 3336,
      "seh": 3337,
      "ĠSamstag": 3338,
      "ĠWind": 3339,
      "Ġverd": 3340,
      "Ġ60": 3341,
      "Ġzweite": 3342,
      "Ġ2003": 3343,
      "lassen": 3344,
      "Ġwechsel": 3345,
      "ĠBank": 3346,
      "ĠKirchen": 3347,
      "orge": 3348,
      "ĠNot": 3349,
      "reiten": 3350,
      "Ġlaut": 3351,
      "ĠInternet": 3352,
      "ĠWort": 3353,
      "ielle": 3354,
      "unge": 3355,
      "Ã¤te": 3356,
      "ĠZukunft": 3357,
      "user": 3358,
      "ierungen": 3359,
      "ĠCon": 3360,
      "go": 3361,
      "struktur": 3362,
      "Ġhalten": 3363,
      "rakti": 3364,
      "):": 3365,
      "ĠVerordnung": 3366,
      "ĠTa": 3367,
      "ĠSeit": 3368,
      "Ġgesehen": 3369,
      "Gen": 3370,
      "verfahren": 3371,
      "ram": 3372,
      "IT": 3373,
      "stÃ¤ndig": 3374,
      "Ġbleibt": 3375,
      "Ġnieder": 3376,
      "ĠWirk": 3377,
      "vent": 3378,
      "ĠHeil": 3379,
      "ĠHandels": 3380,
      "ĠOn": 3381,
      "omas": 3382,
      "ĠUN": 3383,
      "ĠHolz": 3384,
      "isierung": 3385,
      "ĠMÃ¼": 3386,
      "ĠParis": 3387,
      "etzung": 3388,
      "Ġpriv": 3389,
      "ĠComp": 3390,
      "For": 3391,
      "itut": 3392,
      "lag": 3393,
      "58": 3394,
      "ferenz": 3395,
      "teten": 3396,
      "ĠSc": 3397,
      "ĠMay": 3398,
      "spielsweise": 3399,
      "auspiel": 3400,
      "ĠEG": 3401,
      "gesetz": 3402,
      "ĠInternational": 3403,
      "\":": 3404,
      "isiert": 3405,
      "how": 3406,
      "jpg": 3407,
      "alk": 3408,
      "ĠZust": 3409,
      "Ġdarf": 3410,
      "gefÃ¼hrt": 3411,
      "ĠFran": 3412,
      "Ġalt": 3413,
      "ĠFort": 3414,
      "Ġbeide": 3415,
      "ors": 3416,
      "gelegt": 3417,
      "laden": 3418,
      "ĠKrit": 3419,
      "ius": 3420,
      "ĠKopf": 3421,
      "mÃ¤ÃŁig": 3422,
      "AL": 3423,
      "II": 3424,
      "ĠKÃ¶l": 3425,
      "Ã¼sse": 3426,
      "Ġnahe": 3427,
      "immen": 3428,
      "ĠAngeb": 3429,
      "ĠPal": 3430,
      "Ġspielen": 3431,
      "hc": 3432,
      "ĠKlein": 3433,
      "ĠgehÃ¶ren": 3434,
      "77": 3435,
      "ĠVorsitzen": 3436,
      "ĠChe": 3437,
      "Ġvielleicht": 3438,
      "zept": 3439,
      "ĠDruck": 3440,
      "ino": 3441,
      "ĠSpieler": 3442,
      "ĠSchÃ¼ler": 3443,
      "see": 3444,
      "ĠerklÃ¤rt": 3445,
      "Nur": 3446,
      "ĠBeginn": 3447,
      "ĠAuÃŁen": 3448,
      "reff": 3449,
      "Ġhandelt": 3450,
      "ĠKranken": 3451,
      "Ã¶ffnet": 3452,
      "Ġbeteil": 3453,
      "uck": 3454,
      "Ã¼tzen": 3455,
      "Ġerneut": 3456,
      "ieÃŁ": 3457,
      "ĠGeneral": 3458,
      "bs": 3459,
      "Ġru": 3460,
      "ĠFil": 3461,
      "Ã¤dchen": 3462,
      "bek": 3463,
      "Ġverschiedene": 3464,
      "ĠBayern": 3465,
      "ĠPartner": 3466,
      "ĠBus": 3467,
      "ituation": 3468,
      "oper": 3469,
      "Ġdaran": 3470,
      "ese": 3471,
      "Ã¤ngen": 3472,
      "ĠAM": 3473,
      "ĠSil": 3474,
      "tin": 3475,
      "Ã¤ft": 3476,
      "Ġbesten": 3477,
      "Ġerforder": 3478,
      "ĠWein": 3479,
      "ĠWirtschaft": 3480,
      "ĠkÃ¶nnten": 3481,
      "hilfe": 3482,
      "Ã³": 3483,
      "test": 3484,
      "zentr": 3485,
      "Ġtrat": 3486,
      "Ġerk": 3487,
      "ĠAngaben": 3488,
      "hung": 3489,
      "ĠnatÃ¼rlich": 3490,
      "Unser": 3491,
      "zig": 3492,
      "Ġdre": 3493,
      "nungen": 3494,
      "zep": 3495,
      "ĠKilometer": 3496,
      "Ġganze": 3497,
      "ĠMÃ¶glichkeit": 3498,
      "php": 3499,
      "ĠlieÃŁ": 3500,
      "ara": 3501,
      "entrum": 3502,
      "ĠRichtlinie": 3503,
      "iver": 3504,
      "no": 3505,
      "dung": 3506,
      "reisen": 3507,
      "adurch": 3508,
      "ĠHa": 3509,
      "ppe": 3510,
      "ĠgehÃ¶rte": 3511,
      "ĠErfahr": 3512,
      "sprech": 3513,
      "ĠgrÃ¼n": 3514,
      "sto": 3515,
      "omen": 3516,
      "ches": 3517,
      "Ã¶m": 3518,
      "ĠBÃ¼rgermeister": 3519,
      "nissen": 3520,
      "90": 3521,
      "ight": 3522,
      "merk": 3523,
      "ĠPrin": 3524,
      "ĠEuropÃ¤ische": 3525,
      "ĠKontro": 3526,
      "ille": 3527,
      "ĠProbleme": 3528,
      "ĠstÃ¤r": 3529,
      "Ġ>": 3530,
      "ĠChar": 3531,
      "ĠRuss": 3532,
      "ound": 3533,
      "lÃ¤nd": 3534,
      "ĠSteuer": 3535,
      "ĠMein": 3536,
      "Ã¤tigkeit": 3537,
      "berger": 3538,
      "Ġentfernt": 3539,
      "Ġallein": 3540,
      "ĠMeer": 3541,
      "ica": 3542,
      "Ġtrotz": 3543,
      "ĠSchm": 3544,
      "Ãĥ": 3545,
      "ĠSelbst": 3546,
      "Warum": 3547,
      "kur": 3548,
      "tischen": 3549,
      "akter": 3550,
      "nei": 3551,
      "Ġeigene": 3552,
      "ĠBlick": 3553,
      "techn": 3554,
      "Ġhistor": 3555,
      "lÃ¤ss": 3556,
      "osit": 3557,
      "Ġblieb": 3558,
      "ĠUnd": 3559,
      "ĠUTC": 3560,
      "SV": 3561,
      "lad": 3562,
      "Ġdeshalb": 3563,
      "nu": 3564,
      "fre": 3565,
      "iellen": 3566,
      "ĠVort": 3567,
      "Â¨": 3568,
      "88": 3569,
      "Ġirgend": 3570,
      "reibt": 3571,
      "Ġdeutscher": 3572,
      "ĠCD": 3573,
      "rÃ¤um": 3574,
      "ĠDies": 3575,
      "Ġzudem": 3576,
      "rau": 3577,
      "-,": 3578,
      "Ġbrit": 3579,
      "tif": 3580,
      "ĠKur": 3581,
      "sych": 3582,
      "tor": 3583,
      "Ġbereit": 3584,
      "ĠTages": 3585,
      "ĠSa": 3586,
      "oster": 3587,
      "eichen": 3588,
      "Ġinteress": 3589,
      "ution": 3590,
      "jÃ¤hrige": 3591,
      "ABl": 3592,
      "ĠGar": 3593,
      "ĠVier": 3594,
      "html": 3595,
      "ĠEisen": 3596,
      "42": 3597,
      "ausch": 3598,
      "Ġzuvor": 3599,
      "ĠtÃ¤tig": 3600,
      "ĠOp": 3601,
      "stellungen": 3602,
      "affe": 3603,
      "ĠReihe": 3604,
      "ĠErn": 3605,
      "ĠWeise": 3606,
      "Ġbl": 3607,
      "ĠPriv": 3608,
      "Ġsonst": 3609,
      "ĠWill": 3610,
      "ĠStÃ¤d": 3611,
      "Ġzeit": 3612,
      "Ġerrich": 3613,
      "Ġpaar": 3614,
      "Ã¼hren": 3615,
      "Ġarbeiten": 3616,
      "rachen": 3617,
      "usst": 3618,
      "folgen": 3619,
      "ĠNeben": 3620,
      "ĠEinwohner": 3621,
      "ĠHinter": 3622,
      "ĠMr": 3623,
      "ĠWettbewerb": 3624,
      "Ġ2002": 3625,
      "beg": 3626,
      "ĠErw": 3627,
      "ĠGed": 3628,
      "ua": 3629,
      "flÃ¤che": 3630,
      "ox": 3631,
      "glieder": 3632,
      "Ġni": 3633,
      "get": 3634,
      "richtungen": 3635,
      "Ã¼cks": 3636,
      "tierte": 3637,
      "altet": 3638,
      "zi": 3639,
      "Ġzeigen": 3640,
      "Ġide": 3641,
      "fassung": 3642,
      "Ġerreicht": 3643,
      "haft": 3644,
      "enze": 3645,
      "chter": 3646,
      "Ã¤chen": 3647,
      "ĠYork": 3648,
      "raten": 3649,
      "Ġca": 3650,
      "ĠParlaments": 3651,
      "Ste": 3652,
      "Ġleicht": 3653,
      "52": 3654,
      "AS": 3655,
      "hafen": 3656,
      "ĠFar": 3657,
      "fÃ¼r": 3658,
      "steuer": 3659,
      "Ġ2001": 3660,
      "edig": 3661,
      "ash": 3662,
      "54": 3663,
      "ĠBern": 3664,
      "ĠBevÃ¶lkerung": 3665,
      "Ġerreichen": 3666,
      "sichtlich": 3667,
      "Ġgeworden": 3668,
      "ĠFrÃ¼h": 3669,
      "ondon": 3670,
      "ling": 3671,
      "Ġ04": 3672,
      "kay": 3673,
      "Ġung": 3674,
      "ĠFriedrich": 3675,
      "ision": 3676,
      "ĠpersÃ¶n": 3677,
      "por": 3678,
      "gest": 3679,
      "fluss": 3680,
      "ĠHein": 3681,
      "51": 3682,
      "inst": 3683,
      "Ġhelfen": 3684,
      "ĠBrÃ¼": 3685,
      "Tel": 3686,
      "istische": 3687,
      "Ġgek": 3688,
      "verband": 3689,
      "by": 3690,
      "ĠAusbildung": 3691,
      "Ã¶rd": 3692,
      "icken": 3693,
      "Ġbekommen": 3694,
      "ĠJohn": 3695,
      "ĠKolle": 3696,
      "70": 3697,
      "ĠAmer": 3698,
      "schungs": 3699,
      "Des": 3700,
      "ĠBurg": 3701,
      "eilen": 3702,
      "Ġby": 3703,
      "Ġwest": 3704,
      "Ob": 3705,
      "Ġletzte": 3706,
      "mbH": 3707,
      "ĠVide": 3708,
      "Weiter": 3709,
      "Ges": 3710,
      "gebung": 3711,
      "nn": 3712,
      "ski": 3713,
      "zus": 3714,
      "takt": 3715,
      "ĠEd": 3716,
      "orben": 3717,
      "Dieser": 3718,
      "ole": 3719,
      "ile": 3720,
      "ĠursprÃ¼n": 3721,
      "Ġmachte": 3722,
      "89": 3723,
      "Jetzt": 3724,
      "Ġnor": 3725,
      "Ġregel": 3726,
      "fj": 3727,
      "ĠVo": 3728,
      "Ġkaum": 3729,
      "Ġmeinen": 3730,
      "ĠBro": 3731,
      "ĠWaren": 3732,
      "Mehr": 3733,
      "ene": 3734,
      "ĠDre": 3735,
      "Ġ06": 3736,
      "Ġfre": 3737,
      "Ġgesp": 3738,
      "ĠJahrhunderts": 3739,
      "ĠStelle": 3740,
      "stehen": 3741,
      "ĠLandkreis": 3742,
      "Nun": 3743,
      "gebaut": 3744,
      "Zur": 3745,
      "othe": 3746,
      "Ã¶ÃŁe": 3747,
      "ĠAss": 3748,
      "sc": 3749,
      "ĠHalb": 3750,
      "auern": 3751,
      "mitt": 3752,
      "ĠÃ¶ffentlichen": 3753,
      "ĠDat": 3754,
      "ĠHeimat": 3755,
      "OM": 3756,
      "ĠErst": 3757,
      "Ġsogen": 3758,
      "Dabei": 3759,
      "ĠFranz": 3760,
      "yl": 3761,
      "Ãľ": 3762,
      "ĠKÃ¶rper": 3763,
      "zeugen": 3764,
      "Ġkamen": 3765,
      "arbeitet": 3766,
      "ĠerhÃ¶": 3767,
      "ĠHof": 3768,
      "Ġmeist": 3769,
      "Ġdeine": 3770,
      "pe": 3771,
      "ĠMichael": 3772,
      "eils": 3773,
      "urrent": 3774,
      "Also": 3775,
      "Ġbeispielsweise": 3776,
      "Ġwei": 3777,
      "Ã¼ter": 3778,
      "ĠVereinigten": 3779,
      "ali": 3780,
      "Ġmittler": 3781,
      "Ġeher": 3782,
      "ĠBaum": 3783,
      "itzt": 3784,
      "ĠVerwaltungs": 3785,
      "ĠMedien": 3786,
      "Ġoben": 3787,
      "inden": 3788,
      "iar": 3789,
      "echt": 3790,
      "Ge": 3791,
      "jf": 3792,
      "setzen": 3793,
      "helm": 3794,
      "prochen": 3795,
      "Ã¶rden": 3796,
      "stru": 3797,
      "heb": 3798,
      "87": 3799,
      "essor": 3800,
      "BI": 3801,
      "ktor": 3802,
      "Kon": 3803,
      "haltung": 3804,
      "park": 3805,
      "ĠBez": 3806,
      "handlungen": 3807,
      "Ġkompl": 3808,
      "ĠAmts": 3809,
      "jÃ¤hrigen": 3810,
      "ĠGruppen": 3811,
      "Ġfer": 3812,
      "spieler": 3813,
      "ĠBezieh": 3814,
      "ĠGu": 3815,
      "yd": 3816,
      "ĠDort": 3817,
      "Ġeinzelnen": 3818,
      "ĠgegrÃ¼ndet": 3819,
      "ategor": 3820,
      "ĠUntersuch": 3821,
      "ĠRen": 3822,
      "ehler": 3823,
      "ĠForschung": 3824,
      "Ġeingesetzt": 3825,
      "Ġ1999": 3826,
      "Ġ)": 3827,
      "EU": 3828,
      "ĠDo": 3829,
      "ĠDisk": 3830,
      "iegel": 3831,
      "asch": 3832,
      "con": 3833,
      "abend": 3834,
      "Ġad": 3835,
      "53": 3836,
      "ĠKampf": 3837,
      "ograf": 3838,
      "Ġgelang": 3839,
      "ualis": 3840,
      "ĠGmbH": 3841,
      "Ġinternationalen": 3842,
      "Ġstellte": 3843,
      "arte": 3844,
      "ĠRepublik": 3845,
      "ienten": 3846,
      "serv": 3847,
      "rifft": 3848,
      "asen": 3849,
      "ĠBesitz": 3850,
      "zwischen": 3851,
      "OR": 3852,
      "Ġarbeitete": 3853,
      "WÃ¤hrend": 3854,
      "ĠMÃ¤dchen": 3855,
      "ĠEhe": 3856,
      "86": 3857,
      "Ã¶sen": 3858,
      "Ġgleichen": 3859,
      "istik": 3860,
      "tionen": 3861,
      "andid": 3862,
      "ĠKor": 3863,
      "Ġweiterhin": 3864,
      "ĠOrd": 3865,
      "Ġversch": 3866,
      "Ã¶pf": 3867,
      "west": 3868,
      "reten": 3869,
      "ĠMuseum": 3870,
      "Reg": 3871,
      "mand": 3872,
      "ĠDok": 3873,
      "uden": 3874,
      "press": 3875,
      "ammt": 3876,
      "lingen": 3877,
      "rief": 3878,
      "oment": 3879,
      "ĠNein": 3880,
      "ĠErgebnisse": 3881,
      "iete": 3882,
      "ĠRel": 3883,
      "Ġdanach": 3884,
      "Ġse": 3885,
      "Ġsolche": 3886,
      "eth": 3887,
      "Ġallgemein": 3888,
      "ĠApp": 3889,
      "iven": 3890,
      "ielen": 3891,
      "ĠDonnerstag": 3892,
      "rn": 3893,
      "besch": 3894,
      "ĠgrÃ¶ÃŁten": 3895,
      "Ġgeboren": 3896,
      "Ġlag": 3897,
      "tic": 3898,
      "amar": 3899,
      "igh": 3900,
      "ĠStruktur": 3901,
      "inne": 3902,
      "iten": 3903,
      "79": 3904,
      "Ġerfolgreich": 3905,
      "ĠRed": 3906,
      "bte": 3907,
      "\"-": 3908,
      "iko": 3909,
      "spe": 3910,
      "ĠGut": 3911,
      "iden": 3912,
      "ĠPost": 3913,
      "keits": 3914,
      "ima": 3915,
      "ĠTier": 3916,
      "Ġentscheiden": 3917,
      "aktion": 3918,
      "ama": 3919,
      "ĠBruder": 3920,
      "med": 3921,
      "ĠAbt": 3922,
      "ĠMontag": 3923,
      "ĠGi": 3924,
      "ĠZusammenhang": 3925,
      "spiele": 3926,
      "zlich": 3927,
      "Ġverbunden": 3928,
      "Ġrein": 3929,
      "ĠPosition": 3930,
      "po": 3931,
      "ona": 3932,
      "innt": 3933,
      "ĠPass": 3934,
      "rÃ¤sidenten": 3935,
      "ĠKais": 3936,
      "sei": 3937,
      "ĠgewÃ¤hlt": 3938,
      "ĠjÃ¼n": 3939,
      "bi": 3940,
      "Ġop": 3941,
      "klÃ¤rung": 3942,
      "folger": 3943,
      "ĠDav": 3944,
      ".âĢľ": 3945,
      "iegen": 3946,
      "tur": 3947,
      "ux": 3948,
      "otos": 3949,
      "tritt": 3950,
      "eller": 3951,
      "ĠSchauspiel": 3952,
      "nungs": 3953,
      "Ġformula": 3954,
      "ĠTri": 3955,
      "Ġnotwend": 3956,
      "Ġ05": 3957,
      "ĠIr": 3958,
      "Her": 3959,
      "DR": 3960,
      "ĠListe": 3961,
      "Ġentwickelt": 3962,
      "Ġ03": 3963,
      "ĠhÃ¤ufig": 3964,
      "Ġ00": 3965,
      "Ġunseren": 3966,
      "roffen": 3967,
      "ĠTrainer": 3968,
      "ĠBre": 3969,
      "ĠNorden": 3970,
      "Ġ80": 3971,
      "Ġbem": 3972,
      "tigkeit": 3973,
      "75": 3974,
      "aust": 3975,
      "kret": 3976,
      "frist": 3977,
      ".:": 3978,
      "kraft": 3979,
      "ĠAnwendung": 3980,
      "Ġaut": 3981,
      "ĠLondon": 3982,
      "ĠKonz": 3983,
      "anlage": 3984,
      "allo": 3985,
      "gu": 3986,
      "peratur": 3987,
      "ĠHause": 3988,
      "iums": 3989,
      "ĠRhein": 3990,
      "Ġvorh": 3991,
      "Ġbefinden": 3992,
      "ĠWeltkrieg": 3993,
      "Ġus": 3994,
      "ĠStÃ¼ck": 3995,
      "Ġrichtig": 3996,
      "ĠWahr": 3997,
      "Jahr": 3998,
      "Ġebenso": 3999,
      "ĠMio": 4000,
      "ĠHotels": 4001,
      "ĠBÃ¼r": 4002,
      "over": 4003,
      "Ġkennen": 4004,
      "Ġgelegen": 4005,
      "ĠEC": 4006,
      "ĠReise": 4007,
      "wertung": 4008,
      "letzt": 4009,
      "ĠImm": 4010,
      "Ġmeiner": 4011,
      "JÃ¤hrige": 4012,
      "ĠRot": 4013,
      "Ġwesent": 4014,
      "Ġgelten": 4015,
      "Ġzahlreiche": 4016,
      "ĠSchweiz": 4017,
      "ĠKu": 4018,
      "time": 4019,
      "Or": 4020,
      "mut": 4021,
      "warz": 4022,
      "ante": 4023,
      "Ġihres": 4024,
      "Ã¤s": 4025,
      "umm": 4026,
      "esser": 4027,
      "wind": 4028,
      "Ġderzeit": 4029,
      "ada": 4030,
      "sitz": 4031,
      "Ġ1998": 4032,
      "ĠÃĸff": 4033,
      "ĠPrÃ¼": 4034,
      "ĠOrts": 4035,
      "indestens": 4036,
      "ĠInn": 4037,
      "ĠKÃ¶nigreich": 4038,
      "bruch": 4039,
      "efon": 4040,
      "ĠZentrum": 4041,
      "ĠLux": 4042,
      "ĠMax": 4043,
      "78": 4044,
      "Ġverloren": 4045,
      "Ġhal": 4046,
      "ĠProvin": 4047,
      "Ġoffiz": 4048,
      "Ġeng": 4049,
      "ĠSPD": 4050,
      "Ġeinger": 4051,
      "Ġbedeutet": 4052,
      "Ġ1980": 4053,
      "Ġelekt": 4054,
      "ĠGleich": 4055,
      "Ġbald": 4056,
      "ĠStart": 4057,
      "ernen": 4058,
      "okal": 4059,
      "Ġober": 4060,
      "andeln": 4061,
      "Ġbieten": 4062,
      "Ġmoder": 4063,
      "ĠElekt": 4064,
      "Ġsah": 4065,
      "Ã¤ngt": 4066,
      "Ġnachdem": 4067,
      "ĠgewÃ¤hr": 4068,
      "ĠURL": 4069,
      "iziert": 4070,
      "Ġdarunter": 4071,
      "ĠAlex": 4072,
      "99": 4073,
      "ane": 4074,
      "ĠGold": 4075,
      "oy": 4076,
      "ĠVergleich": 4077,
      "spruch": 4078,
      "deck": 4079,
      "ĠMor": 4080,
      "wicklung": 4081,
      "Ġpolitischen": 4082,
      "IE": 4083,
      "ĠFeld": 4084,
      "unsch": 4085,
      "ĠOlymp": 4086,
      "ĠArbeiten": 4087,
      "erner": 4088,
      "ĠPri": 4089,
      "reibung": 4090,
      "ĠKÃ¼nstler": 4091,
      "stÃ¤t": 4092,
      "Ġaufgenommen": 4093,
      "ID": 4094,
      "ĠTheater": 4095,
      "ba": 4096,
      "arbeitung": 4097,
      "ated": 4098,
      "ĠHÃ¤": 4099,
      "ĠStellung": 4100,
      "pel": 4101,
      "ennung": 4102,
      "setzt": 4103,
      "Ġneuer": 4104,
      "ĠSpanien": 4105,
      "anischen": 4106,
      "sent": 4107,
      "TS": 4108,
      "udem": 4109,
      "gehend": 4110,
      "Ġtim": 4111,
      "ĠProdukte": 4112,
      "ufer": 4113,
      "ĠVerbindung": 4114,
      "Ġstudierte": 4115,
      "Ġcurrent": 4116,
      "ĠBek": 4117,
      "ĠLicht": 4118,
      "ames": 4119,
      "Ġgekommen": 4120,
      "Ġunver": 4121,
      "ĠDeb": 4122,
      "Ġorganis": 4123,
      "fan": 4124,
      "Ġfound": 4125,
      "ĠlÃ¤nger": 4126,
      "Ġeigentlich": 4127,
      "ĠLÃ¶": 4128,
      "ĠWo": 4129,
      "Ġkur": 4130,
      "ĠHier": 4131,
      "Br": 4132,
      "ĠKarl": 4133,
      "85": 4134,
      "tik": 4135,
      "Ġ1994": 4136,
      "les": 4137,
      "Ã¨": 4138,
      "Ġverein": 4139,
      "Ġ186": 4140,
      "ĠVerkehrs": 4141,
      "gesellschaft": 4142,
      "Ġ1992": 4143,
      "Ger": 4144,
      "ĠAbsatz": 4145,
      "Ġgebracht": 4146,
      "Ġgepl": 4147,
      "durch": 4148,
      "ĠGesprÃ¤": 4149,
      "ĠRegen": 4150,
      "Ġknapp": 4151,
      "cc": 4152,
      "Ġland": 4153,
      "Ġfolgende": 4154,
      "Ġerster": 4155,
      "ĠGerichts": 4156,
      "Ġentstanden": 4157,
      "Ġspielt": 4158,
      "bringen": 4159,
      "ĠHamburg": 4160,
      "Ã¤lfte": 4161,
      "ĠEing": 4162,
      "Ġhohen": 4163,
      "ime": 4164,
      "itionen": 4165,
      "ĠMartin": 4166,
      "Ġcm": 4167,
      "ĠGÃ¤ste": 4168,
      "ĠFeuerwehr": 4169,
      "vier": 4170,
      "ĠHar": 4171,
      "wald": 4172,
      "ean": 4173,
      "ĠAktiv": 4174,
      "wa": 4175,
      "ochen": 4176,
      "elte": 4177,
      "Ġ1996": 4178,
      "losen": 4179,
      "ograph": 4180,
      "Ġbedeuten": 4181,
      "ĠTyp": 4182,
      "ourn": 4183,
      "Ġ=": 4184,
      "will": 4185,
      "ĠErgebnis": 4186,
      "ĠBrand": 4187,
      "Ġcurrently": 4188,
      "Ġehemaligen": 4189,
      "Ġgestellt": 4190,
      "ĠDen": 4191,
      "ĠauÃŁerdem": 4192,
      "kirche": 4193,
      "spolitik": 4194,
      "Ġ1995": 4195,
      "AM": 4196,
      "ekten": 4197,
      "Ġverz": 4198,
      "haben": 4199,
      "ĠNicht": 4200,
      "ĠMittwoch": 4201,
      "ĠSpiele": 4202,
      "Ġres": 4203,
      "mitteln": 4204,
      "ĠAnzahl": 4205,
      "leiter": 4206,
      "Ġ90": 4207,
      "ĠThomas": 4208,
      "Ġverbesser": 4209,
      "Ġalte": 4210,
      "legung": 4211,
      "Ġneun": 4212,
      "ĠGest": 4213,
      "Ġnimmt": 4214,
      "ĠJose": 4215,
      "Ġsofort": 4216,
      "krÃ¤fte": 4217,
      "ĠSchrift": 4218,
      "schuld": 4219,
      "Ġhol": 4220,
      "ĠDrei": 4221,
      "gs": 4222,
      "zeiten": 4223,
      "uld": 4224,
      "iam": 4225,
      "lege": 4226,
      "ĠAndre": 4227,
      "Mein": 4228,
      "ĠPfl": 4229,
      "ĠAuftrag": 4230,
      "ns": 4231,
      "ollar": 4232,
      "ĠZiff": 4233,
      "cy": 4234,
      "glied": 4235,
      "Ġak": 4236,
      "Ġjede": 4237,
      "Ġmindestens": 4238,
      "ĠGro": 4239,
      "ĠDienstag": 4240,
      "illa": 4241,
      "preis": 4242,
      "ĠverÃ¶ffentlicht": 4243,
      "ĠNiederl": 4244,
      "drÃ¼ck": 4245,
      "ĠBerufs": 4246,
      "Ġ1997": 4247,
      "Ġserver": 4248,
      "rimin": 4249,
      "ĠSieg": 4250,
      "ĠMonate": 4251,
      "ĠGebur": 4252,
      "ĠÃ¼bern": 4253,
      "ĠnÃ¶rd": 4254,
      "Ġ70": 4255,
      "ĠjÃ¤hr": 4256,
      "ĠSÃ¼den": 4257,
      "eck": 4258,
      "Dieses": 4259,
      "ĠTagen": 4260,
      "Ġraus": 4261,
      "mehr": 4262,
      "rael": 4263,
      "Ġlei": 4264,
      "ĠSituation": 4265,
      "ĠArchite": 4266,
      "ĠBesucher": 4267,
      "ĠLiter": 4268,
      "hÃ¤ltnis": 4269,
      "Ġeinzige": 4270,
      "Ġzuletzt": 4271,
      "halte": 4272,
      "sammlung": 4273,
      "Ġdritten": 4274,
      "ĠMotor": 4275,
      "ĠVolk": 4276,
      "âĢ¢": 4277,
      "ĠPrivat": 4278,
      "nern": 4279,
      "Damit": 4280,
      "ĠHans": 4281,
      "ĠZwischen": 4282,
      "organis": 4283,
      "Ġerfolgte": 4284,
      "tigung": 4285,
      "Ġganzen": 4286,
      "Ġtats": 4287,
      "ĠLeiter": 4288,
      "ĠVerbrauch": 4289,
      "quested": 4290,
      "Ġkrit": 4291,
      "zeigt": 4292,
      "ook": 4293,
      "unn": 4294,
      "Ġzeig": 4295,
      "ĠErz": 4296,
      "to": 4297,
      "bil": 4298,
      "Ġanders": 4299,
      "ĠEmpf": 4300,
      "gress": 4301,
      "rang": 4302,
      "Ġhei": 4303,
      "ervice": 4304,
      "Ġrequested": 4305,
      "Ġ1993": 4306,
      "ĠdÃ¼rfen": 4307,
      "Ġsomit": 4308,
      "ĠOsten": 4309,
      "Ġ02": 4310,
      "ĠSchwer": 4311,
      "ĠDel": 4312,
      "eten": 4313,
      "ĠFirma": 4314,
      "ĠRestaur": 4315,
      "ld": 4316,
      "ĠKa": 4317,
      "aff": 4318,
      "82": 4319,
      "ĠhÃ¤lt": 4320,
      "ĠPaul": 4321,
      "Ã¼tz": 4322,
      "zustellen": 4323,
      "ĠPunkt": 4324,
      "bank": 4325,
      "wegung": 4326,
      "ĠBeschl": 4327,
      "low": 4328,
      "itten": 4329,
      "akte": 4330,
      "ftware": 4331,
      "gi": 4332,
      "ĠGottes": 4333,
      "ftung": 4334,
      "ĠSchwe": 4335,
      "ĠSee": 4336,
      "Ġitalien": 4337,
      "ĠGarten": 4338,
      "Ġregion": 4339,
      "Ã¤llt": 4340,
      "Ġgerne": 4341,
      "Ġvorhanden": 4342,
      "Ġmehreren": 4343,
      "ĠBall": 4344,
      "riffe": 4345,
      "schiff": 4346,
      "FF": 4347,
      "Ġzug": 4348,
      "sburg": 4349,
      "Vert": 4350,
      "ĠAG": 4351,
      "za": 4352,
      "ĠAktion": 4353,
      "vert": 4354,
      "hoben": 4355,
      "riffen": 4356,
      "uchten": 4357,
      "gemeinschaft": 4358,
      "Ġ35": 4359,
      "forderungen": 4360,
      "ĠPublik": 4361,
      "ĠTro": 4362,
      "ĠDoppel": 4363,
      "ley": 4364,
      "kosten": 4365,
      "ĠKreuz": 4366,
      "gliche": 4367,
      "nier": 4368,
      "ĠSchloss": 4369,
      "ply": 4370,
      "icherung": 4371,
      "ischof": 4372,
      "mmen": 4373,
      "Ġposit": 4374,
      "orgt": 4375,
      "Ġentstand": 4376,
      "Ġheutigen": 4377,
      "AuÃŁerdem": 4378,
      "ĠKol": 4379,
      "do": 4380,
      "ĠSprache": 4381,
      "Â»": 4382,
      "last": 4383,
      "fallen": 4384,
      "ĠPfarr": 4385,
      "Stand": 4386,
      "gericht": 4387,
      "ĠVorschlag": 4388,
      "Ġglaube": 4389,
      "Deut": 4390,
      "Dat": 4391,
      "ĠProdukt": 4392,
      "roh": 4393,
      "entral": 4394,
      "Ġzog": 4395,
      "Land": 4396,
      "Ġnord": 4397,
      "unternehmen": 4398,
      "ĠFischer": 4399,
      "fahrer": 4400,
      "view": 4401,
      "Le": 4402,
      "Ġgenommen": 4403,
      "Ġanzu": 4404,
      "hre": 4405,
      "Neu": 4406,
      "ikt": 4407,
      "Ġtut": 4408,
      "fil": 4409,
      "ediglich": 4410,
      "wurf": 4411,
      "udwig": 4412,
      "reib": 4413,
      "Ġforder": 4414,
      "zahlen": 4415,
      "werke": 4416,
      "hlen": 4417,
      "til": 4418,
      "Ġfunktion": 4419,
      "ĠZweiten": 4420,
      "Fl": 4421,
      "ĠMain": 4422,
      "ĠBund": 4423,
      "Ġas": 4424,
      "Ġjemand": 4425,
      "DE": 4426,
      "Ġerf": 4427,
      "Ġsprach": 4428,
      "Ġindem": 4429,
      "ĠForschungs": 4430,
      "Ġjedem": 4431,
      "lose": 4432,
      "Ġerreichte": 4433,
      "Ġtot": 4434,
      "ĠKÃ¶ln": 4435,
      "ĠTon": 4436,
      "Ã¼b": 4437,
      "gart": 4438,
      "ehlen": 4439,
      "acher": 4440,
      "ĠAnteil": 4441,
      "Ġengl": 4442,
      "ĠTat": 4443,
      "??": 4444,
      "anger": 4445,
      "ĠDis": 4446,
      "Ġvorher": 4447,
      "scheinlich": 4448,
      "Ġgesamten": 4449,
      "zeichen": 4450,
      "Ġamer": 4451,
      "Ġanges": 4452,
      "Ġmed": 4453,
      "Ġjedes": 4454,
      "ĠHerrn": 4455,
      "Ġ36": 4456,
      "ĠNachbar": 4457,
      "gruppen": 4458,
      "Ġhohe": 4459,
      "ki": 4460,
      "pflich": 4461,
      "ĠBef": 4462,
      "tisch": 4463,
      "Ġruss": 4464,
      "CD": 4465,
      "ichtete": 4466,
      "95": 4467,
      "ĠAir": 4468,
      "linien": 4469,
      "ga": 4470,
      "ĠRussland": 4471,
      "ĠAntw": 4472,
      "ĠgefÃ¤hr": 4473,
      "mee": 4474,
      "rump": 4475,
      "Ã¼m": 4476,
      "Gem": 4477,
      "Neben": 4478,
      "ĠWor": 4479,
      "ĠSein": 4480,
      "yer": 4481,
      "ĠGrie": 4482,
      "ĠKloster": 4483,
      "ĠPunkte": 4484,
      "Ġkomp": 4485,
      "ders": 4486,
      "Ã¶lf": 4487,
      "ĠerklÃ¤rte": 4488,
      "ĠMonaten": 4489,
      "ĠMaterial": 4490,
      "ĠReply": 4491,
      "Ġsprechen": 4492,
      "schusses": 4493,
      "ĠAf": 4494,
      "Ex": 4495,
      "ĠAussch": 4496,
      "int": 4497,
      "wor": 4498,
      "ĠÃ¼bernahm": 4499,
      "ĠThemen": 4500,
      "Ġeinst": 4501,
      "ĠWeiÃŁ": 4502,
      "ĠWeihn": 4503,
      "ĠSeine": 4504,
      "Ã¼gen": 4505,
      "ĠHann": 4506,
      "Ġteilweise": 4507,
      "inal": 4508,
      "laufen": 4509,
      "vel": 4510,
      "Zwei": 4511,
      "Ã¿": 4512,
      "denk": 4513,
      "ĠWesten": 4514,
      "Ġla": 4515,
      "96": 4516,
      "ines": 4517,
      "Ġfertig": 4518,
      "Ġdun": 4519,
      "ĠIhren": 4520,
      "industrie": 4521,
      "Ġdarin": 4522,
      "ags": 4523,
      "Son": 4524,
      "ele": 4525,
      "barkeit": 4526,
      "ĠHÃ¤lfte": 4527,
      "____": 4528,
      "ĠTabe": 4529,
      "nehm": 4530,
      "ÃŁt": 4531,
      "ET": 4532,
      "Bitte": 4533,
      "tliche": 4534,
      "ĠWolf": 4535,
      "ĠTal": 4536,
      "ĠBran": 4537,
      "male": 4538,
      "mittag": 4539,
      "wen": 4540,
      "Ġguten": 4541,
      "emat": 4542,
      "Ho": 4543,
      "tische": 4544,
      "ĠSalz": 4545,
      "ordin": 4546,
      "ĠGemeinschafts": 4547,
      "lass": 4548,
      "Ġ1991": 4549,
      "ĠtÃ¤": 4550,
      "auber": 4551,
      "Ġzerst": 4552,
      "ĠMensch": 4553,
      "Ġsozialen": 4554,
      "ike": 4555,
      "olle": 4556,
      "Ġgebe": 4557,
      "nd": 4558,
      "renz": 4559,
      "Ġmag": 4560,
      "Ġgenutzt": 4561,
      "Europ": 4562,
      "ĠBildung": 4563,
      "auch": 4564,
      "asste": 4565,
      "gebracht": 4566,
      "ĠZeitpunkt": 4567,
      "Ġvorgesehen": 4568,
      "ĠBal": 4569,
      "led": 4570,
      "ĠStudien": 4571,
      "ĠFrankfurt": 4572,
      "ĠLang": 4573,
      "ĠSamm": 4574,
      "schlÃ¤ge": 4575,
      "Ġ500": 4576,
      "This": 4577,
      "Ġ1970": 4578,
      "day": 4579,
      "ieÃŁen": 4580,
      "kÃ¼nf": 4581,
      "Ġwissenschaft": 4582,
      "geschichte": 4583,
      "Ġenthalten": 4584,
      "Ġleb": 4585,
      "ni": 4586,
      "anne": 4587,
      "ĠIniti": 4588,
      "ikal": 4589,
      "ĠHor": 4590,
      "ĠSand": 4591,
      "ĠWissenschaft": 4592,
      "orgung": 4593,
      "ago": 4594,
      "ĠSek": 4595,
      "ĠÃ¤lter": 4596,
      "Ġdra": 4597,
      "ĠInteresse": 4598,
      "gemeinde": 4599,
      "wechsel": 4600,
      "nas": 4601,
      "urg": 4602,
      "vangel": 4603,
      "ĠgemÃ¤ÃŁ": 4604,
      "ĠerwÃ¤hn": 4605,
      "ĠVerwaltung": 4606,
      "Ġmen": 4607,
      "ĠECU": 4608,
      "site": 4609,
      "ĠerfÃ¼": 4610,
      "unkten": 4611,
      "schau": 4612,
      "bie": 4613,
      "Ġdagegen": 4614,
      "Ġmm": 4615,
      "ĠSicherheits": 4616,
      "angs": 4617,
      "Ã¼rf": 4618,
      "ĠWol": 4619,
      "ĠEngl": 4620,
      "dien": 4621,
      "71": 4622,
      "Ġschaffen": 4623,
      "seiten": 4624,
      "ĠZwe": 4625,
      "ĠfranzÃ¶sischen": 4626,
      "ĠEnd": 4627,
      "ĠunterstÃ¼tzt": 4628,
      "ĠTest": 4629,
      "Ġsetzte": 4630,
      "Ã¶stlich": 4631,
      "uz": 4632,
      "reite": 4633,
      "ĠBis": 4634,
      "rax": 4635,
      "verwalt": 4636,
      "Ġpassiert": 4637,
      "air": 4638,
      "Ġwechselte": 4639,
      "leitung": 4640,
      "Danke": 4641,
      "ĠKauf": 4642,
      "Ġgeschlossen": 4643,
      "athol": 4644,
      "Ġverlie": 4645,
      "ĠKindern": 4646,
      "Ġ1945": 4647,
      "sprache": 4648,
      "ĠkÃ¶nne": 4649,
      "erweise": 4650,
      "ournal": 4651,
      "Ġverf": 4652,
      "ĠgroÃŁer": 4653,
      "ĠMacht": 4654,
      "schei": 4655,
      "Ġjunge": 4656,
      "à¸": 4657,
      "EM": 4658,
      "jo": 4659,
      "uc": 4660,
      "ĠMaÃŁ": 4661,
      "band": 4662,
      "gut": 4663,
      "ĠerhÃ¤lt": 4664,
      "Ġtragen": 4665,
      "ĠHeraus": 4666,
      "ĠStutt": 4667,
      "94": 4668,
      "Ġwarum": 4669,
      "ĠFrieden": 4670,
      "ivid": 4671,
      "Ġ1989": 4672,
      "aupts": 4673,
      "Ġvorbei": 4674,
      "ĠSuper": 4675,
      "Dass": 4676,
      "Ġgrund": 4677,
      "ĠChina": 4678,
      "ĠBilder": 4679,
      "ĠUnternehmens": 4680,
      "ĠWÃ¤hrend": 4681,
      "ĠSonder": 4682,
      "linge": 4683,
      "lig": 4684,
      "fÃ¤lle": 4685,
      "Ġgenug": 4686,
      "ĠLes": 4687,
      "ĠBasis": 4688,
      "Ġbestimmt": 4689,
      "Ġerinner": 4690,
      "kennen": 4691,
      "rochen": 4692,
      "Ġinform": 4693,
      "72": 4694,
      "Ġstarb": 4695,
      "ary": 4696,
      "2009": 4697,
      "rab": 4698,
      "flug": 4699,
      "Ã¤mlich": 4700,
      "ĠChem": 4701,
      "iens": 4702,
      "ĠSache": 4703,
      "osk": 4704,
      "Ġverk": 4705,
      "jet": 4706,
      "Ġverlassen": 4707,
      "ĠRegionen": 4708,
      "spart": 4709,
      "ĠFernseh": 4710,
      "deckt": 4711,
      "ĠGeorg": 4712,
      "gegeben": 4713,
      "Ġtradition": 4714,
      "dacht": 4715,
      "ielten": 4716,
      "2012": 4717,
      "gefÃ¤hr": 4718,
      "Ġnationalen": 4719,
      "2013": 4720,
      "Pl": 4721,
      "ĠBerliner": 4722,
      "zul": 4723,
      "jen": 4724,
      "ĠgrÃ¶ÃŁte": 4725,
      "ĠkÃ¼nf": 4726,
      "zy": 4727,
      "Ġerrichtet": 4728,
      "rate": 4729,
      "Ġbrauchen": 4730,
      "ligen": 4731,
      "fert": 4732,
      "immungen": 4733,
      "Don": 4734,
      "name": 4735,
      "wegs": 4736,
      "ĠCor": 4737,
      "ĠGet": 4738,
      "sprach": 4739,
      "cel": 4740,
      "ham": 4741,
      "ĠStahl": 4742,
      "ĠRis": 4743,
      "gessen": 4744,
      "riebe": 4745,
      "ĠAlbum": 4746,
      "ĠDach": 4747,
      "ros": 4748,
      "ĠBot": 4749,
      "ĠVertreter": 4750,
      "sÃ¤tze": 4751,
      "ĠZusch": 4752,
      "Ġanderer": 4753,
      "ĠDeutsche": 4754,
      "ĠKarr": 4755,
      "tent": 4756,
      "ĠMad": 4757,
      "Ġfolgender": 4758,
      "indest": 4759,
      "ĠHaushalts": 4760,
      "ĠOper": 4761,
      "ĠErk": 4762,
      "ĠLinie": 4763,
      "ĠQualitÃ¤t": 4764,
      "Ġstaat": 4765,
      "ĠSchne": 4766,
      "Ġselten": 4767,
      "ĠStar": 4768,
      "ĠvÃ¶": 4769,
      "ĠFÃ¶rderung": 4770,
      "out": 4771,
      "leisch": 4772,
      "ĠTV": 4773,
      "ĠBlut": 4774,
      "ĠArten": 4775,
      "ĠbenÃ¶": 4776,
      "AP": 4777,
      "ata": 4778,
      "Ġhinzu": 4779,
      "ĠBor": 4780,
      "ĠProvinz": 4781,
      "ĠprÃ¤sen": 4782,
      "ĠBull": 4783,
      "Ã¼ssel": 4784,
      "Ġmeinem": 4785,
      "ĠDro": 4786,
      "Ġproduz": 4787,
      "stellten": 4788,
      "ikanische": 4789,
      "schine": 4790,
      "verl": 4791,
      "2018": 4792,
      "ĠenthÃ¤lt": 4793,
      "ĠTerr": 4794,
      "Ġ*": 4795,
      "Ġverh": 4796,
      "ague": 4797,
      "Ġpar": 4798,
      "lock": 4799,
      "Ġeg": 4800,
      "illen": 4801,
      "Ġsetzt": 4802,
      "sgesamt": 4803,
      "ĠText": 4804,
      "Ġdadurch": 4805,
      "trem": 4806,
      "ĠGericht": 4807,
      "ric": 4808,
      "ĠAufgabe": 4809,
      "ĠWider": 4810,
      "ĠAbst": 4811,
      "ward": 4812,
      "84": 4813,
      "Ġrich": 4814,
      "ologischen": 4815,
      "ickt": 4816,
      "Ġie": 4817,
      "Ġfal": 4818,
      "Ġpolitische": 4819,
      "!!": 4820,
      "ĠSchweizer": 4821,
      "ĠVoll": 4822,
      "kap": 4823,
      "ĠÃ¼berhaupt": 4824,
      "Ã½": 4825,
      "ĠUniversity": 4826,
      "ĠEbene": 4827,
      "lauben": 4828,
      "ĠJo": 4829,
      "Ġpol": 4830,
      "ĠLiebe": 4831,
      "ĠViel": 4832,
      "ĠZoll": 4833,
      "92": 4834,
      "ĠKer": 4835,
      "Ġgleichzeitig": 4836,
      "ĠWilhelm": 4837,
      "halle": 4838,
      "ĠVerantwort": 4839,
      "fÃ¼hl": 4840,
      "wirkungen": 4841,
      "ierenden": 4842,
      "va": 4843,
      "maÃŁnahmen": 4844,
      "81": 4845,
      "lern": 4846,
      "Ġfahren": 4847,
      "ĠFen": 4848,
      "bildungs": 4849,
      "ĠTeilnehmer": 4850,
      "âĢĿ": 4851,
      "Ġlau": 4852,
      "Ã¤ne": 4853,
      "gramme": 4854,
      "ĠKontakt": 4855,
      "Ã¼ch": 4856,
      "à¸Ģ": 4857,
      "Ġschwier": 4858,
      "Ġtimes": 4859,
      "ĠKriegs": 4860,
      "abl": 4861,
      "Welt": 4862,
      "andlung": 4863,
      "Ġgesamte": 4864,
      "Ġehr": 4865,
      "dam": 4866,
      "Vielleicht": 4867,
      "altungen": 4868,
      "ĠChristian": 4869,
      "ierter": 4870,
      "74": 4871,
      "ĠVerÃ¤nder": 4872,
      "ents": 4873,
      "Ã¤hrung": 4874,
      "Ġbelie": 4875,
      "Na": 4876,
      "Ġpm": 4877,
      "pol": 4878,
      "AG": 4879,
      "pd": 4880,
      "igungs": 4881,
      "SU": 4882,
      "ĠVerwendung": 4883,
      "83": 4884,
      "Ġversucht": 4885,
      "achts": 4886,
      "Ġste": 4887,
      "ĠWohnung": 4888,
      "2014": 4889,
      "Ġwichtige": 4890,
      "ĠSicht": 4891,
      "ĠgÃ¼nst": 4892,
      "ĠStrom": 4893,
      "Ġbeein": 4894,
      "alz": 4895,
      "ĠKurz": 4896,
      "ĠUnfall": 4897,
      "llerdings": 4898,
      "istr": 4899,
      "igur": 4900,
      "ĠIdee": 4901,
      "ringer": 4902,
      "Ġbestimmten": 4903,
      "ĠnÃ¤mlich": 4904,
      "Ġgemeinsamen": 4905,
      "ĠGrundlage": 4906,
      "ĠVerbesser": 4907,
      "Ã¶rde": 4908,
      "fragen": 4909,
      "programm": 4910,
      "Ġtreffen": 4911,
      "Ġrechts": 4912,
      "Hey": 4913,
      "kommens": 4914,
      "Ġerschien": 4915,
      "ola": 4916,
      "Ġneues": 4917,
      "2011": 4918,
      "ĠZeu": 4919,
      "ih": 4920,
      "illas": 4921,
      "ĠRuhe": 4922,
      "zwei": 4923,
      "ĠOrdnung": 4924,
      "Bes": 4925,
      "ĠMetho": 4926,
      "ĠbeschÃ¤f": 4927,
      "Dem": 4928,
      "ezial": 4929,
      "Ġprakti": 4930,
      "ohlen": 4931,
      "ĠMilliar": 4932,
      "ena": 4933,
      "hÃ¶r": 4934,
      "stellte": 4935,
      "ĠVerkauf": 4936,
      "ĠKern": 4937,
      "Ġkannst": 4938,
      "wissenschaft": 4939,
      "ico": 4940,
      "betrieb": 4941,
      "ĠFel": 4942,
      "Ã¼ge": 4943,
      "ĠLeip": 4944,
      "volution": 4945,
      "Ġlediglich": 4946,
      "ival": 4947,
      "ĠPre": 4948,
      "Ġumfassen": 4949,
      "aun": 4950,
      "Ġauszu": 4951,
      "ĠGlÃ¼ck": 4952,
      "zeugnisse": 4953,
      "atoren": 4954,
      "ita": 4955,
      "schech": 4956,
      "Ġschrieb": 4957,
      "Ġph": 4958,
      "immel": 4959,
      "ĠGraf": 4960,
      "rechte": 4961,
      "Ġspricht": 4962,
      "alyse": 4963,
      "73": 4964,
      "ĠgefÃ¼hrt": 4965,
      "2010": 4966,
      "ĠtÃ¶": 4967,
      "assungs": 4968,
      "ĠProzess": 4969,
      "dest": 4970,
      "nr": 4971,
      "ĠAngst": 4972,
      "ĠInstrum": 4973,
      "Ġgeeig": 4974,
      "Ġhoff": 4975,
      "ĠTeile": 4976,
      "stÃ¤ndigen": 4977,
      "ĠMorgen": 4978,
      "Ġjungen": 4979,
      "alls": 4980,
      "ĠBeteil": 4981,
      "klus": 4982,
      "lands": 4983,
      "Mus": 4984,
      "ĠVoraus": 4985,
      "Ġred": 4986,
      "Ġyou": 4987,
      "ĠGemeinden": 4988,
      "Ġ2019": 4989,
      "ĠIhrer": 4990,
      "ĠRein": 4991,
      "ĠBegriff": 4992,
      "Ġprof": 4993,
      "ĠdurchgefÃ¼hrt": 4994,
      "Ġunmittel": 4995,
      "Ġ32": 4996,
      "ĠLÃ¶sung": 4997,
      "ĠKant": 4998,
      "ĠMaria": 4999,
      "tiv": 5000,
      "Alles": 5001,
      "Ġscheint": 5002,
      "aub": 5003,
      "Ġtran": 5004,
      "cen": 5005,
      "Ã¿Ã¿": 5006,
      "ĠKaiser": 5007,
      "ĠLudwig": 5008,
      "ĠBedingungen": 5009,
      "Ġwenige": 5010,
      "ĠFlÃ¼cht": 5011,
      "ĠJapan": 5012,
      "iente": 5013,
      "lÃ¤nder": 5014,
      "wach": 5015,
      "rechts": 5016,
      "herap": 5017,
      "93": 5018,
      "ĠLager": 5019,
      "ĠAngebot": 5020,
      "ĠPil": 5021,
      "66": 5022,
      "ĠMel": 5023,
      "fÃ¤l": 5024,
      "uster": 5025,
      "Ġberuf": 5026,
      "pflicht": 5027,
      "ĠAbschluss": 5028,
      "anlagen": 5029,
      "ington": 5030,
      "ton": 5031,
      "Ġweltweit": 5032,
      "uel": 5033,
      "Ġbestimmte": 5034,
      "erseits": 5035,
      "stands": 5036,
      "iste": 5037,
      "Vers": 5038,
      "ktive": 5039,
      "91": 5040,
      "Ġdamal": 5041,
      "ĠSchÃ¶n": 5042,
      "ĠOpfer": 5043,
      "ace": 5044,
      "Ġwider": 5045,
      "ĠMaschinen": 5046,
      "ĠMilitÃ¤r": 5047,
      "Ġabsolv": 5048,
      "etzten": 5049,
      "ĠVerÃ¶ffentlich": 5050,
      "zehn": 5051,
      "LL": 5052,
      "ĠVersion": 5053,
      "Ġsetzen": 5054,
      "ĠSach": 5055,
      "recher": 5056,
      "ĠÃ¼brigen": 5057,
      "ĠZeitung": 5058,
      "Ġbeginnt": 5059,
      "ĠFlughafen": 5060,
      "vention": 5061,
      "De": 5062,
      "ĠÃ¶sterreich": 5063,
      "Ġlok": 5064,
      "Ġbeleg": 5065,
      "mannschaft": 5066,
      "ĠWÃ¼r": 5067,
      "ĠExper": 5068,
      "ĠProfessor": 5069,
      "ows": 5070,
      "ause": 5071,
      "Ġmussten": 5072,
      "ĠKarriere": 5073,
      "ĠEhren": 5074,
      "ĠDeutsch": 5075,
      "Ġ1988": 5076,
      "Ġ45": 5077,
      "ĠWagen": 5078,
      "ĠWachst": 5079,
      "Ġreich": 5080,
      "Ġzunehmen": 5081,
      "ĠStandard": 5082,
      "ĠGlas": 5083,
      "ymnas": 5084,
      "ĠBahnhof": 5085,
      "Ġnutzen": 5086,
      "ĠRund": 5087,
      "haber": 5088,
      "ĠInstitut": 5089,
      "ĠBehÃ¶rden": 5090,
      "ĠAufgaben": 5091,
      "ĠAbgeord": 5092,
      "rÃ¼nen": 5093,
      "Ġbringt": 5094,
      "Ġverantwort": 5095,
      "ĠProt": 5096,
      "ĠermÃ¶glich": 5097,
      "Ġgener": 5098,
      "ĠerzÃ¤hlt": 5099,
      "ehrte": 5100,
      "film": 5101,
      "olz": 5102,
      "ĠOrganisation": 5103,
      "Ã¼gel": 5104,
      "reiber": 5105,
      "Ã¼cken": 5106,
      "ĠAutor": 5107,
      "zun": 5108,
      "ĠÃ¤uÃŁer": 5109,
      "ĠZur": 5110,
      "mi": 5111,
      "pfel": 5112,
      "ĠEssen": 5113,
      "ĠnÃ¤": 5114,
      "ĠKre": 5115,
      "hi": 5116,
      "ĠHerren": 5117,
      "gÃ¤nger": 5118,
      "kampf": 5119,
      "formen": 5120,
      "ĠSerie": 5121,
      "stoffe": 5122,
      "Ġschaf": 5123,
      "etr": 5124,
      "Ã¥": 5125,
      "Ġreden": 5126,
      "ĠfÃ¼hl": 5127,
      "werbe": 5128,
      "ession": 5129,
      "ĠFluss": 5130,
      "ters": 5131,
      "ĠBÃ¶": 5132,
      "Je": 5133,
      "raxis": 5134,
      "Ġfolgte": 5135,
      "ĠGesundheits": 5136,
      "eilung": 5137,
      "alog": 5138,
      "ĠbestÃ¤": 5139,
      "ymb": 5140,
      "teilen": 5141,
      "bli": 5142,
      "Seine": 5143,
      "sprung": 5144,
      "rep": 5145,
      "ĠUl": 5146,
      "ĠTo": 5147,
      "Ġwichtigsten": 5148,
      "Ġexist": 5149,
      "Ġrei": 5150,
      "ĠhÃ¶ren": 5151,
      "ĠDinge": 5152,
      "bez": 5153,
      "geschlagen": 5154,
      "ĠWal": 5155,
      "ĠLo": 5156,
      "ĠCol": 5157,
      "Ġ300": 5158,
      "gangs": 5159,
      "garten": 5160,
      "ĠLandwirtschaft": 5161,
      "olge": 5162,
      "ĠGeist": 5163,
      "han": 5164,
      "ĠPrem": 5165,
      "ĠStrecke": 5166,
      "Ġgebaut": 5167,
      "Beim": 5168,
      "Ġerheb": 5169,
      "Ġbrachte": 5170,
      "ĠJur": 5171,
      "Stra": 5172,
      "ĠArbeitspl": 5173,
      "ĠCDU": 5174,
      "finden": 5175,
      "xt": 5176,
      "Ġunters": 5177,
      "chmal": 5178,
      "ICH": 5179,
      "anwalt": 5180,
      "ĠPresse": 5181,
      "irm": 5182,
      "ĠÃĦnderung": 5183,
      "spielen": 5184,
      "Tra": 5185,
      "mon": 5186,
      "weile": 5187,
      "ĠRich": 5188,
      "Ġberichtet": 5189,
      "kont": 5190,
      "Ġinst": 5191,
      "ĠLeistung": 5192,
      "ologische": 5193,
      "ĠLiteratur": 5194,
      "ĠBildungs": 5195,
      "ĠLiga": 5196,
      "Ġwelches": 5197,
      "ĠHal": 5198,
      "ĠDenk": 5199,
      "ĠModell": 5200,
      "ĠBestand": 5201,
      "redit": 5202,
      "geg": 5203,
      "ĠZugang": 5204,
      "bus": 5205,
      "Ġausger": 5206,
      "kei": 5207,
      "ral": 5208,
      "echnet": 5209,
      "Ġverletzt": 5210,
      "Ã¤ger": 5211,
      "ect": 5212,
      "ries": 5213,
      "ĠzwÃ¶lf": 5214,
      "rolle": 5215,
      "sprÃ¼": 5216,
      "ĠSim": 5217,
      "ĠVertra": 5218,
      "Ġnormal": 5219,
      "ĠComm": 5220,
      "echan": 5221,
      "troffen": 5222,
      "Ġfolgt": 5223,
      "zeugt": 5224,
      "mens": 5225,
      "ĠBil": 5226,
      "AF": 5227,
      "ĠÃľ": 5228,
      "ĠTrain": 5229,
      "zur": 5230,
      "ĠvÃ¶llig": 5231,
      "Ġ1987": 5232,
      "Ġ1960": 5233,
      "ĠKontrolle": 5234,
      "Sam": 5235,
      "zut": 5236,
      "pft": 5237,
      "ĠHeinrich": 5238,
      "Weitere": 5239,
      "ĠFahrzeug": 5240,
      "ĠÃĸffent": 5241,
      "ĠLeit": 5242,
      "Ġbilden": 5243,
      "ĠfrÃ¼h": 5244,
      "aint": 5245,
      "ĠNachrichten": 5246,
      "ini": 5247,
      "hy": 5248,
      "Ġentgegen": 5249,
      "Ġverschw": 5250,
      "ĠSinne": 5251,
      "olo": 5252,
      "ĠPortug": 5253,
      "ads": 5254,
      "ĠTÃ¤tigkeit": 5255,
      "Te": 5256,
      "ĠMilliarden": 5257,
      "Ġ1985": 5258,
      "Fr": 5259,
      "ĠDet": 5260,
      "ĠHoff": 5261,
      "ĠanschlieÃŁend": 5262,
      "Erst": 5263,
      "ĠHandel": 5264,
      "Chr": 5265,
      "Ġdei": 5266,
      "ĠHen": 5267,
      "gelt": 5268,
      "Ġinzwischen": 5269,
      "Ġbetroffen": 5270,
      "97": 5271,
      "=\"": 5272,
      "Ġsuchen": 5273,
      "ĠAntrag": 5274,
      "Ġerfahren": 5275,
      "beitet": 5276,
      "Ġâ": 5277,
      "Ma": 5278,
      "ĠFoto": 5279,
      "fast": 5280,
      "ĠVideo": 5281,
      "merksam": 5282,
      "way": 5283,
      "ĠDabei": 5284,
      "ĠAuss": 5285,
      "Ã¤hlte": 5286,
      "azz": 5287,
      "leb": 5288,
      "ĠKategor": 5289,
      "cn": 5290,
      "Ġherr": 5291,
      "Ã¤hrt": 5292,
      "ĠSonnen": 5293,
      "ĠwÃ¼n": 5294,
      "ĠMÃ¶glichkeiten": 5295,
      "Ġklass": 5296,
      "ĠSpielen": 5297,
      "Meine": 5298,
      "Ġgewinnen": 5299,
      "Che": 5300,
      "tags": 5301,
      "ĠAp": 5302,
      "kra": 5303,
      "Ġkeiner": 5304,
      "Ġdarum": 5305,
      "ĠGrÃ¼ndung": 5306,
      "rachten": 5307,
      "elten": 5308,
      "ĠSchluss": 5309,
      "ĠunabhÃ¤ng": 5310,
      "ĠBab": 5311,
      "ehnt": 5312,
      "Ġerd": 5313,
      "ĠAc": 5314,
      "Ġ1986": 5315,
      "kan": 5316,
      "fÃ¤higkeit": 5317,
      "âĢ¦": 5318,
      "Ġare": 5319,
      "ĠMess": 5320,
      "ĠPersonal": 5321,
      "obilien": 5322,
      "Ġarbeitet": 5323,
      "64": 5324,
      "Ã¼tzt": 5325,
      "Ġmittel": 5326,
      "ĠSchlaf": 5327,
      "Gesch": 5328,
      "ĠRoman": 5329,
      "Ihre": 5330,
      "ĠstÃ¤nd": 5331,
      "ĠFerien": 5332,
      "ratet": 5333,
      "vis": 5334,
      "Ã¼sseld": 5335,
      "ĠVereins": 5336,
      "ĠBezug": 5337,
      "steh": 5338,
      "ĠWetter": 5339,
      "erien": 5340,
      "stÃ¤nde": 5341,
      "mt": 5342,
      "ng": 5343,
      "ĠtatsÃ¤chlich": 5344,
      "wart": 5345,
      "ĠArbeitnehmer": 5346,
      "bra": 5347,
      "ĠStellen": 5348,
      "ical": 5349,
      "ĠStuden": 5350,
      "ĠFehler": 5351,
      "regierung": 5352,
      "ĠSir": 5353,
      "Ġerfolgt": 5354,
      "armon": 5355,
      "ĠGerman": 5356,
      "eiert": 5357,
      "rennen": 5358,
      "ĠverfÃ¼g": 5359,
      "Se": 5360,
      "ĠStamm": 5361,
      "vorschriften": 5362,
      "ĠlÃ¤uft": 5363,
      "ffe": 5364,
      "ĠFolgen": 5365,
      "ĠEinfÃ¼hrung": 5366,
      "Fra": 5367,
      "ĠUmgebung": 5368,
      "ms": 5369,
      "ĠPreise": 5370,
      "alisierung": 5371,
      "ĠOnline": 5372,
      "ju": 5373,
      "ĠÃĦr": 5374,
      "ĠSchaf": 5375,
      "mat": 5376,
      "dere": 5377,
      "Ġunserem": 5378,
      "Ã¤ume": 5379,
      "ĠSchritt": 5380,
      "ĠCity": 5381,
      "ĠRegierungs": 5382,
      "gemeine": 5383,
      "ĠMiss": 5384,
      "ĠtrÃ¤gt": 5385,
      "Ġgetan": 5386,
      "ĠunterstÃ¼tzen": 5387,
      "ĠFÃ¼hrung": 5388,
      "ces": 5389,
      "bedingungen": 5390,
      "Gut": 5391,
      "Ġwillst": 5392,
      "ĠClub": 5393,
      "rick": 5394,
      "abrik": 5395,
      "Ġbeste": 5396,
      "Dort": 5397,
      "reitet": 5398,
      "ĠTrump": 5399,
      "asil": 5400,
      "ĠMat": 5401,
      "ĠFÃ¤llen": 5402,
      "ĠSold": 5403,
      "-/-/": 5404,
      "ĠTre": 5405,
      "wiegend": 5406,
      "ĠSter": 5407,
      "eis": 5408,
      "Ã¤mpfen": 5409,
      "Ġerwartet": 5410,
      "ivil": 5411,
      "hs": 5412,
      "gÃ¼l": 5413,
      "ĠLehrer": 5414,
      "steil": 5415,
      "Ġdeutsch": 5416,
      "wÃ¤rts": 5417,
      "Ġlebt": 5418,
      "via": 5419,
      "Ġjeweiligen": 5420,
      "ruf": 5421,
      "ehrt": 5422,
      "win": 5423,
      "Ã¤ten": 5424,
      "osoph": 5425,
      "ĠInformation": 5426,
      "ĠAch": 5427,
      "axim": 5428,
      "ademie": 5429,
      "its": 5430,
      "ĠComputer": 5431,
      "emin": 5432,
      "iefer": 5433,
      "Ġvertreten": 5434,
      "gelassen": 5435,
      "ĠbetrÃ¤gt": 5436,
      "AC": 5437,
      "TE": 5438,
      "enne": 5439,
      "ĠGrenze": 5440,
      "ĠJes": 5441,
      "ĠÎ": 5442,
      "Ġvoraus": 5443,
      "ĠRang": 5444,
      "Ã¶rm": 5445,
      "cr": 5446,
      "Ã¤sser": 5447,
      "Ġkommenden": 5448,
      "mund": 5449,
      "ahnen": 5450,
      "laubt": 5451,
      "El": 5452,
      "ĠEigent": 5453,
      "ĠWechsel": 5454,
      "ssel": 5455,
      "ĠWaffen": 5456,
      "une": 5457,
      "98": 5458,
      "Ġzentr": 5459,
      "achtet": 5460,
      "ĠRobert": 5461,
      "ĠVerteid": 5462,
      "ĠDieser": 5463,
      "upp": 5464,
      "ĠTiere": 5465,
      "ano": 5466,
      "--": 5467,
      "igit": 5468,
      "dy": 5469,
      "Preis": 5470,
      "ĠBeitrag": 5471,
      "rats": 5472,
      "ĠWM": 5473,
      "ĠStock": 5474,
      "ĠHerbst": 5475,
      "ĠGriechen": 5476,
      "denken": 5477,
      "koh": 5478,
      "Ġbestand": 5479,
      "UR": 5480,
      ");": 5481,
      "ĠDank": 5482,
      "ĠGemeinschaften": 5483,
      "ĠPflanzen": 5484,
      "ĠCamp": 5485,
      "ĠGre": 5486,
      "ĠTop": 5487,
      "Ġgewonnen": 5488,
      "Ġdrin": 5489,
      "werte": 5490,
      "irks": 5491,
      "itzer": 5492,
      "Will": 5493,
      "ĠDom": 5494,
      "uern": 5495,
      "Ġbas": 5496,
      "Keine": 5497,
      "oo": 5498,
      "setzungen": 5499,
      "ĠStuttgart": 5500,
      "ĠCom": 5501,
      "geld": 5502,
      "Ġbeteiligt": 5503,
      "Sein": 5504,
      "Ã¶rdert": 5505,
      "ĠWa": 5506,
      "klasse": 5507,
      "Ġleich": 5508,
      "Ġeid": 5509,
      "spar": 5510,
      "Ġnein": 5511,
      "wander": 5512,
      "ĠMeinung": 5513,
      "ĠFirmen": 5514,
      "brit": 5515,
      "Viele": 5516,
      "blatt": 5517,
      "ĠNutzung": 5518,
      "lieben": 5519,
      "ĠverfÃ¼gt": 5520,
      "bu": 5521,
      "Ã¼st": 5522,
      "dpa": 5523,
      "ĠStad": 5524,
      "stud": 5525,
      "tierten": 5526,
      "ĠSchulen": 5527,
      "ischem": 5528,
      "Ġgenannten": 5529,
      "hte": 5530,
      "ĠSV": 5531,
      "stÃ¤ndige": 5532,
      "SCH": 5533,
      "Ġgemeinsame": 5534,
      "Ġabzu": 5535,
      "rechend": 5536,
      "ĠAnlage": 5537,
      "Ġzahlreichen": 5538,
      "ĠErde": 5539,
      "ĠPolen": 5540,
      "verwaltung": 5541,
      "ĠKamer": 5542,
      "ĠverstÃ¤r": 5543,
      "ĠBereichen": 5544,
      "denburg": 5545,
      "ĠSoftware": 5546,
      "ĠMoment": 5547,
      "ĠDER": 5548,
      "ink": 5549,
      "ĠChef": 5550,
      "rige": 5551,
      "100": 5552,
      "ĠFe": 5553,
      "ayer": 5554,
      "reuen": 5555,
      "Ġgeschaffen": 5556,
      "Ġuz": 5557,
      "aher": 5558,
      "ED": 5559,
      "ĠWerke": 5560,
      "ĠIS": 5561,
      "mittelt": 5562,
      "Ġehemalige": 5563,
      "ĠSied": 5564,
      "hÃ¤user": 5565,
      "Ġbraucht": 5566,
      "ĠViz": 5567,
      "Hallo": 5568,
      "Ġjen": 5569,
      "Weil": 5570,
      "hu": 5571,
      "ĠSzen": 5572,
      "ones": 5573,
      "Ã¼cksich": 5574,
      "ĠLeitung": 5575,
      "ĠStreit": 5576,
      "TI": 5577,
      "sf": 5578,
      "sein": 5579,
      "Ġfe": 5580,
      "Ġ1984": 5581,
      "dass": 5582,
      "Ġziehen": 5583,
      "ĠDiskuss": 5584,
      "schte": 5585,
      "flÃ¤chen": 5586,
      "Ġbeob": 5587,
      "Ã¼hm": 5588,
      "Ġbesondere": 5589,
      "ĠNachfolger": 5590,
      "kung": 5591,
      "ĠSing": 5592,
      "ĠChance": 5593,
      "Herr": 5594,
      "Ġmil": 5595,
      "Ġdachte": 5596,
      "wohnern": 5597,
      "Ġkleiner": 5598,
      "ĠMik": 5599,
      "hebung": 5600,
      "ĠDavid": 5601,
      "maÃŁ": 5602,
      "agn": 5603,
      "Ġobwohl": 5604,
      "ĠTradition": 5605,
      "Ġmon": 5606,
      "ĠJob": 5607,
      "ĠGeburt": 5608,
      "ĠMenge": 5609,
      "ĠRie": 5610,
      "ĠArmee": 5611,
      "Ġerb": 5612,
      "ĠBeziehungen": 5613,
      "Ġrde": 5614,
      "Noch": 5615,
      "Ġverpflich": 5616,
      "Mail": 5617,
      "ĠTar": 5618,
      "Ġwith": 5619,
      "ancen": 5620,
      "meisterschaft": 5621,
      "indungen": 5622,
      "ĠMonat": 5623,
      "rieges": 5624,
      "bericht": 5625,
      "endete": 5626,
      "Ġumfasst": 5627,
      "ĠPa": 5628,
      "ĠEntwicklungs": 5629,
      "ĠLog": 5630,
      "ministerium": 5631,
      "itar": 5632,
      "ĠZus": 5633,
      "ĠnÃ¶": 5634,
      "bad": 5635,
      "OP": 5636,
      "Ġzeigte": 5637,
      "punkte": 5638,
      "ildet": 5639,
      "Ġdefin": 5640,
      "Ġag": 5641,
      "Bet": 5642,
      "Ġentsprechend": 5643,
      "bis": 5644,
      "Schon": 5645,
      "ĠAnschluss": 5646,
      "WeiÃŁ": 5647,
      "Qu": 5648,
      "Ġfrom": 5649,
      "ala": 5650,
      "nam": 5651,
      "ĠNummer": 5652,
      "ĠAuswahl": 5653,
      "ĠKritik": 5654,
      "bew": 5655,
      "index": 5656,
      "ĠZeitraum": 5657,
      "ĠKlasse": 5658,
      "Ġintegr": 5659,
      "ĠSat": 5660,
      "wSt": 5661,
      "ĠBeam": 5662,
      "Ã¼rk": 5663,
      "riech": 5664,
      "Ġlangen": 5665,
      "Bundes": 5666,
      "ĠnÃ¤chste": 5667,
      "ring": 5668,
      "oth": 5669,
      "Ġausgestat": 5670,
      "Ġtyp": 5671,
      "ĠPolitiker": 5672,
      "ĠBew": 5673,
      "ĠInformations": 5674,
      "Sh": 5675,
      "gebÃ¤ude": 5676,
      "ĠQualif": 5677,
      "Ġlinks": 5678,
      "ios": 5679,
      "ierende": 5680,
      "dent": 5681,
      "West": 5682,
      "Ġhil": 5683,
      "ĠAs": 5684,
      "iat": 5685,
      "ants": 5686,
      "ĠLiefer": 5687,
      "Ġfanden": 5688,
      "ĠInteressen": 5689,
      "ĠDollar": 5690,
      "ds": 5691,
      "ĠSchweden": 5692,
      "bliothe": 5693,
      "ĠFenster": 5694,
      "ĠursprÃ¼nglich": 5695,
      "zunehmen": 5696,
      "Ġied": 5697,
      "Ġunten": 5698,
      "Bild": 5699,
      "Ur": 5700,
      "ular": 5701,
      "Ġmorgen": 5702,
      "ĠstÃ¤rker": 5703,
      "Oder": 5704,
      "Heute": 5705,
      "Ġmel": 5706,
      "bÃ¼": 5707,
      "Ġinternationale": 5708,
      "ĠMc": 5709,
      "ave": 5710,
      "2008": 5711,
      "ente": 5712,
      "68": 5713,
      "ĠTermin": 5714,
      "ĠPop": 5715,
      "Unsere": 5716,
      "herr": 5717,
      "tegie": 5718,
      "Nachdem": 5719,
      "LAN": 5720,
      "ics": 5721,
      "Verordnung": 5722,
      "ualisiert": 5723,
      "ĠJournal": 5724,
      "Ġvergleich": 5725,
      "ĠerwÃ¤hnt": 5726,
      "Ġedr": 5727,
      "Ġangeboten": 5728,
      "Ġruh": 5729,
      "finale": 5730,
      "edia": 5731,
      "igungen": 5732,
      "wÃ¼rd": 5733,
      "ĠRechte": 5734,
      "ĠKra": 5735,
      "frau": 5736,
      "Ġstammen": 5737,
      "65": 5738,
      "ally": 5739,
      "Bo": 5740,
      "ĠEp": 5741,
      "ĠZiele": 5742,
      "ĠAuswirkungen": 5743,
      "Ġfallen": 5744,
      "ĠmÃ¼sse": 5745,
      "britann": 5746,
      "Ġview": 5747,
      "ĠZeiten": 5748,
      "Ġ1983": 5749,
      "ĠIst": 5750,
      "ĠAufent": 5751,
      "Ġmin": 5752,
      "mÃ¶gen": 5753,
      "ownlo": 5754,
      "cm": 5755,
      "ĠRichter": 5756,
      "leistung": 5757,
      "ĠPfer": 5758,
      "Ġleid": 5759,
      "ĠBach": 5760,
      "Ġbetreffen": 5761,
      "eisen": 5762,
      "Ġbekannte": 5763,
      "able": 5764,
      "OS": 5765,
      "ĠAkt": 5766,
      "ĠVerbesserung": 5767,
      "ĠIsrael": 5768,
      "amin": 5769,
      "Ġ1950": 5770,
      "ĠÃ¼berra": 5771,
      "Ġ?": 5772,
      "Ã¼ten": 5773,
      "Ġaufzu": 5774,
      "ĠStil": 5775,
      "ĠKrankenhaus": 5776,
      "leg": 5777,
      "Ã¼hle": 5778,
      "istisch": 5779,
      "ĠJust": 5780,
      "fÃ¼hren": 5781,
      "chester": 5782,
      "Ġerweiter": 5783,
      "Ġstammt": 5784,
      "Ã¶tt": 5785,
      "ĠjÃ¼ng": 5786,
      "ĠLeistungen": 5787,
      "meld": 5788,
      "dn": 5789,
      "ĠAntwort": 5790,
      "ĠSÃ¤": 5791,
      "ĠBud": 5792,
      "Ã¶nen": 5793,
      "Ġedi": 5794,
      "ĠZahlen": 5795,
      "osen": 5796,
      "ĠBetriebs": 5797,
      "verstÃ¤nd": 5798,
      "ĠArbeiter": 5799,
      "Ġhielt": 5800,
      "ĠDokument": 5801,
      "ĠGas": 5802,
      "kretÃ¤r": 5803,
      "ĠLab": 5804,
      "row": 5805,
      "ĠFlÃ¤che": 5806,
      "ĠKab": 5807,
      "ĠLeipzig": 5808,
      "uhl": 5809,
      "ĠSchlag": 5810,
      "holt": 5811,
      "ĠVerf": 5812,
      "ĠDurchfÃ¼hrung": 5813,
      "ĠKollegen": 5814,
      "abt": 5815,
      "Ġta": 5816,
      "ĠJohannes": 5817,
      "ĠFreunde": 5818,
      "afr": 5819,
      "ĠFraktion": 5820,
      "ĠVerband": 5821,
      "uff": 5822,
      "Ġgezeigt": 5823,
      "Ġeinzu": 5824,
      "aters": 5825,
      "67": 5826,
      "ĠDienstleistungen": 5827,
      "ĠSatz": 5828,
      "Ġzer": 5829,
      "Ġdisk": 5830,
      "selben": 5831,
      "ĠRunde": 5832,
      "Ġentstehen": 5833,
      "ĠTemperatur": 5834,
      "val": 5835,
      "ĠStunde": 5836,
      "Ġ33": 5837,
      "ĠAnti": 5838,
      "eta": 5839,
      "dessen": 5840,
      "ĠLeague": 5841,
      "Ã¶der": 5842,
      "tive": 5843,
      "ĠPe": 5844,
      "Ġabgeschlossen": 5845,
      "2007": 5846,
      "strecke": 5847,
      "Ġ1982": 5848,
      "ĠerÃ¶ffnet": 5849,
      "Ġlandwirtschaft": 5850,
      "Ġgeplant": 5851,
      "Ġzumindest": 5852,
      "emann": 5853,
      "ĠProjekte": 5854,
      "oin": 5855,
      "amb": 5856,
      "Ġverhei": 5857,
      "ĠWander": 5858,
      "Ġna": 5859,
      "ited": 5860,
      "windigkeit": 5861,
      "akfast": 5862,
      "ij": 5863,
      "Ġsorg": 5864,
      "Ġrelativ": 5865,
      "Ġans": 5866,
      "umb": 5867,
      "zÃ¼glich": 5868,
      "macht": 5869,
      "Ġbesuchte": 5870,
      "Gemein": 5871,
      "Geb": 5872,
      "ĠRock": 5873,
      "Ġverstehen": 5874,
      "leitet": 5875,
      "Ġbein": 5876,
      "ĠDreh": 5877,
      "vertrag": 5878,
      "kÃ¤": 5879,
      "ĠPrÃ¤sidenten": 5880,
      "ĠZuge": 5881,
      "ĠauÃŁerhalb": 5882,
      "enntnis": 5883,
      "ĠViertel": 5884,
      "ĠGefahr": 5885,
      "stattung": 5886,
      "Å¡": 5887,
      "ĠAusstellung": 5888,
      "emburg": 5889,
      "Ġgra": 5890,
      "SG": 5891,
      "Ġnew": 5892,
      "ĠZeichen": 5893,
      "ĠStudium": 5894,
      "gewÃ¶hn": 5895,
      "pu": 5896,
      "ĠHafen": 5897,
      "Deshalb": 5898,
      "ĠKÃ¶nigs": 5899,
      "ĠBerat": 5900,
      "ĠStÃ¤dte": 5901,
      "ĠberÃ¼cksich": 5902,
      "Ġ1981": 5903,
      "IP": 5904,
      "ĠgrÃ¶ÃŁer": 5905,
      "ĠDÃ¤n": 5906,
      "ĠEinfluss": 5907,
      "olden": 5908,
      "ĠDDR": 5909,
      "ĠHaft": 5910,
      "fried": 5911,
      "ĠKrank": 5912,
      "ĠAutob": 5913,
      "Ġerkennen": 5914,
      "ĠmÃ¶chten": 5915,
      "orie": 5916,
      "Ġsolchen": 5917,
      "ĠAbs": 5918,
      "SP": 5919,
      "Ġzweit": 5920,
      "Ġwollten": 5921,
      "amarillas": 5922,
      "Ġdenke": 5923,
      "bn": 5924,
      "gelÃ¶st": 5925,
      "gas": 5926,
      "aille": 5927,
      "lÃ¤ndern": 5928,
      "Ġbritischen": 5929,
      "kor": 5930,
      ".-": 5931,
      "ĠIII": 5932,
      "mark": 5933,
      "ĠKons": 5934,
      "any": 5935,
      "lichkeiten": 5936,
      "ĠregelmÃ¤ÃŁig": 5937,
      "ĠTelefon": 5938,
      "ĠGrenz": 5939,
      "EIN": 5940,
      "ĠDial": 5941,
      "ĠBu": 5942,
      "kÃ¼nd": 5943,
      "ĠergÃ¤n": 5944,
      "Ġniemand": 5945,
      "tell": 5946,
      "Ġfiel": 5947,
      "bauen": 5948,
      "TV": 5949,
      "ĠGewalt": 5950,
      "Ġ1979": 5951,
      "Ġnotwendig": 5952,
      "Dazu": 5953,
      "Ġwahrscheinlich": 5954,
      "ĠausschlieÃŁlich": 5955,
      "ĠGesprÃ¤ch": 5956,
      "ĠExp": 5957,
      "ĠHimmel": 5958,
      "ĠBauern": 5959,
      "alition": 5960,
      "otte": 5961,
      "ĠVerhalten": 5962,
      "ĠHund": 5963,
      "ĠKla": 5964,
      "2006": 5965,
      "ĠEngland": 5966,
      "ĠService": 5967,
      "westen": 5968,
      "ĠRett": 5969,
      "Ġ(âĢŀ": 5970,
      "Ġbislang": 5971,
      "das": 5972,
      "Ġunmittelbar": 5973,
      "ĠBrief": 5974,
      "ĠfrÃ¼hen": 5975,
      "ĠDÃ¼sseld": 5976,
      "emark": 5977,
      "Ġbekomm": 5978,
      "Ġverab": 5979,
      "ĠrÃ¼ck": 5980,
      "Ġmi": 5981,
      "ĠMobil": 5982,
      "ĠSchwester": 5983,
      "Ġwus": 5984,
      "Ġgetroffen": 5985,
      "ĠPan": 5986,
      "ĠIhrem": 5987,
      "Ġdpa": 5988,
      "ĠGrÃ¼nden": 5989,
      "69": 5990,
      "Ġkultur": 5991,
      "itution": 5992,
      "ĠImmobilien": 5993,
      "ness": 5994,
      "ĠVorsitzender": 5995,
      "ĠKlima": 5996,
      "Ġerforderlich": 5997,
      "weder": 5998,
      "Ġausgew": 5999,
      "ĠDemokrat": 6000,
      "ĠMatt": 6001,
      "Besch": 6002,
      "plÃ¤tze": 6003,
      "edes": 6004,
      "ĠTu": 6005,
      "rÃ¤ume": 6006,
      "ĠfÃ¤llt": 6007,
      "beck": 6008,
      "affel": 6009,
      "ollen": 6010,
      "Ã¼ssen": 6011,
      "ĠWebsite": 6012,
      "Zudem": 6013,
      "ĠermÃ¶glicht": 6014,
      "ĠChor": 6015,
      "Cl": 6016,
      "erei": 6017,
      "lebt": 6018,
      "ĠTisch": 6019,
      "ĠSachsen": 6020,
      "ĠSÃ¤nger": 6021,
      "zeichnete": 6022,
      "He": 6023,
      "Ġselben": 6024,
      "fordert": 6025,
      "Ġbildet": 6026,
      "ĠPatienten": 6027,
      "ĠGrÃ¶ÃŁe": 6028,
      "Ġanderes": 6029,
      "ĠSchÃ¤": 6030,
      "adrat": 6031,
      "gewiesen": 6032,
      "Ġbeginnen": 6033,
      "Ġweiterer": 6034,
      "ĠKandid": 6035,
      "ĠTransport": 6036,
      "open": 6037,
      "ĠStimm": 6038,
      "Ġverantwortlich": 6039,
      "arian": 6040,
      "Ġverkauft": 6041,
      "auftrag": 6042,
      "Ġnow": 6043,
      "frastruktur": 6044,
      "Ġ{": 6045,
      "252": 6046,
      "gelbe": 6047,
      "ĠGesicht": 6048,
      "republik": 6049,
      "igar": 6050,
      "ĠTechnik": 6051,
      "SE": 6052,
      "ckey": 6053,
      "Ġmensch": 6054,
      "Ġwarten": 6055,
      "ience": 6056,
      "IC": 6057,
      "alifor": 6058,
      "ĠBeschÃ¤ftigung": 6059,
      "ielte": 6060,
      "splan": 6061,
      "ient": 6062,
      "Ġud": 6063,
      "ĠAnton": 6064,
      "ĠJung": 6065,
      "Ġglauben": 6066,
      "ĠbeschÃ¤ftigt": 6067,
      "Ġangenommen": 6068,
      "ĠLÃ¤nge": 6069,
      "Arb": 6070,
      "angeb": 6071,
      "ĠIntegr": 6072,
      "ĠdÃ¼rfte": 6073,
      "ĠRand": 6074,
      "ĠPublikum": 6075,
      "irn": 6076,
      "Ġwirtschaftlichen": 6077,
      "ĠTÃ¼rkei": 6078,
      "Ġwert": 6079,
      "agd": 6080,
      "Ġko": 6081,
      "fÃ¶rm": 6082,
      "Ġversuchen": 6083,
      "auptsÃ¤chlich": 6084,
      "ĠVen": 6085,
      "union": 6086,
      "................": 6087,
      "ris": 6088,
      "ĠAlexander": 6089,
      "Bahn": 6090,
      "Ġentspricht": 6091,
      "aliforn": 6092,
      "ĠMinute": 6093,
      "ams": 6094,
      "sÃ¤tz": 6095,
      "gern": 6096,
      "ĠfranzÃ¶sische": 6097,
      "reig": 6098,
      "Ġwenigen": 6099,
      "ĠErfahrung": 6100,
      "ĠFisch": 6101,
      "ĠTim": 6102,
      "Okay": 6103,
      "anzler": 6104,
      "Ġzufolge": 6105,
      "Ġwiederum": 6106,
      "Ġmusst": 6107,
      "Ġallgemeinen": 6108,
      "Ġbesitzt": 6109,
      "spor": 6110,
      "Ġsogenannten": 6111,
      "Ã¼h": 6112,
      "Ġwor": 6113,
      "ĠKooper": 6114,
      "ĠRum": 6115,
      "iginal": 6116,
      "onte": 6117,
      "nes": 6118,
      "Ġhe": 6119,
      "ĠKrÃ¤": 6120,
      "ĠReform": 6121,
      "euten": 6122,
      "iveau": 6123,
      "linik": 6124,
      "bÃ¼r": 6125,
      "vorsitzen": 6126,
      "Ã¤ss": 6127,
      "ehmer": 6128,
      "gg": 6129,
      "musik": 6130,
      "Ġentlang": 6131,
      "ĠPoliz": 6132,
      "ble": 6133,
      "handel": 6134,
      "Ġvergessen": 6135,
      "Ġ1975": 6136,
      "iets": 6137,
      "Ġwelcher": 6138,
      "Sel": 6139,
      "ĠAuÃŁerdem": 6140,
      "ĠMÃ¼ller": 6141,
      "ĠSpezial": 6142,
      "mu": 6143,
      "Ġwww": 6144,
      "ĠÃ¼bernommen": 6145,
      "ĠRennen": 6146,
      "isierte": 6147,
      "ĠBezeichnung": 6148,
      "ĠrÃ¶m": 6149,
      "Ġ1978": 6150,
      "Ġletzt": 6151,
      "bereitung": 6152,
      "ĠGeg": 6153,
      "TER": 6154,
      "Ġmaxim": 6155,
      "emente": 6156,
      "Ġ400": 6157,
      "ĠWeihnachts": 6158,
      "endes": 6159,
      "hor": 6160,
      "Ġentwickelte": 6161,
      "ĠSpaÃŁ": 6162,
      "schm": 6163,
      "ĠVerbraucher": 6164,
      "ĠCharakter": 6165,
      "Ġlesen": 6166,
      "Ġgern": 6167,
      "ĠGesundheit": 6168,
      "Ġheim": 6169,
      "Ġuner": 6170,
      "ĠJe": 6171,
      "mÃ¤r": 6172,
      "Ġsoziale": 6173,
      "ymbol": 6174,
      "ĠFot": 6175,
      "britannien": 6176,
      "losigkeit": 6177,
      "pfen": 6178,
      "ffer": 6179,
      "temberg": 6180,
      "ĠErnst": 6181,
      "liegenden": 6182,
      "Ġ34": 6183,
      "ĠEt": 6184,
      "fts": 6185,
      "ĠgrÃ¶ÃŁere": 6186,
      "sprogramm": 6187,
      "ĠFlor": 6188,
      "Ġweder": 6189,
      "lay": 6190,
      "Ġgehe": 6191,
      "ĠTats": 6192,
      "ĠBett": 6193,
      "insel": 6194,
      "back": 6195,
      "ĠFortsch": 6196,
      "cu": 6197,
      "ĠWunsch": 6198,
      "ĠWild": 6199,
      "entwicklung": 6200,
      "Ġkathol": 6201,
      "ĠWiener": 6202,
      "ĠGelegen": 6203,
      "aller": 6204,
      "hilfen": 6205,
      "grar": 6206,
      "Aut": 6207,
      "runde": 6208,
      "Ġ150": 6209,
      "Ã¤nn": 6210,
      "Ã¼ste": 6211,
      "ĠFahrer": 6212,
      "ĠAlten": 6213,
      "ĠOtt": 6214,
      "ĠSuche": 6215,
      "far": 6216,
      "ttemberg": 6217,
      "ĠTrans": 6218,
      "ĠVerhÃ¤ltnis": 6219,
      "bÃ¼rger": 6220,
      "OL": 6221,
      "Ġlangsam": 6222,
      "ĠZum": 6223,
      "Spiel": 6224,
      "Pr": 6225,
      "ĠCount": 6226,
      "Ġgeschrieben": 6227,
      "Ġprom": 6228,
      "allel": 6229,
      "Ġkn": 6230,
      "utzung": 6231,
      "Ġgehalten": 6232,
      "lack": 6233,
      "orfer": 6234,
      "stÃ¤d": 6235,
      "ĠeuropÃ¤ische": 6236,
      "Ã¶se": 6237,
      "eind": 6238,
      "cs": 6239,
      "ĠGegensatz": 6240,
      "fred": 6241,
      "ĠWh": 6242,
      "tierung": 6243,
      "zern": 6244,
      "ĠNahr": 6245,
      "Ġaktuellen": 6246,
      "ĠverÃ¶ffentlichte": 6247,
      "ĠSilber": 6248,
      "âĢľ)": 6249,
      "ĠKron": 6250,
      "tert": 6251,
      "Ġ$": 6252,
      "Laut": 6253,
      "ĠHauptstadt": 6254,
      "ĠVerbr": 6255,
      "ĠÂ°": 6256,
      "Ġwunder": 6257,
      "Ã¶sungen": 6258,
      "versammlung": 6259,
      "ynam": 6260,
      "GroÃŁ": 6261,
      "Ġentschieden": 6262,
      "ida": 6263,
      "ĠNachdem": 6264,
      "Ã¤nglich": 6265,
      "ĠErsten": 6266,
      "Ġ75": 6267,
      "rÃ¤gen": 6268,
      "ĠSchlacht": 6269,
      "netz": 6270,
      "ĠStimmen": 6271,
      "ikanischer": 6272,
      "gangenheit": 6273,
      "ĠHannover": 6274,
      "ĠFac": 6275,
      "ĠCap": 6276,
      "stÃ¤r": 6277,
      "ĠMy": 6278,
      "ĠâĢľ": 6279,
      "mÃ¶glichen": 6280,
      "mÃ¶glichkeiten": 6281,
      "zÃ¤hl": 6282,
      "legten": 6283,
      "Ġgingen": 6284,
      "okoll": 6285,
      "strahl": 6286,
      "ĠUND": 6287,
      "Â¼": 6288,
      "mlich": 6289,
      "ĠAndreas": 6290,
      "ĠAlle": 6291,
      "iment": 6292,
      "Par": 6293,
      "Ġunterwegs": 6294,
      "ĠJer": 6295,
      "ĠJack": 6296,
      "Ġ38": 6297,
      "pack": 6298,
      "Ġtr": 6299,
      "Siehe": 6300,
      "WÃ¼r": 6301,
      "ĠBon": 6302,
      "Ġkonzentr": 6303,
      "leit": 6304,
      "dient": 6305,
      "Ã¤st": 6306,
      "Ġstets": 6307,
      "ĠAngel": 6308,
      "ĠBem": 6309,
      "ĠBewegung": 6310,
      "ĠKonzert": 6311,
      "Ġausgezeichnet": 6312,
      "Trotz": 6313,
      "Ġlauf": 6314,
      "ĠSchaden": 6315,
      "Ġ1972": 6316,
      "63": 6317,
      "volle": 6318,
      "Artikel": 6319,
      "Ġvertra": 6320,
      "Ġdahin": 6321,
      "here": 6322,
      "ĠverlÃ¤": 6323,
      "ĠPu": 6324,
      "ĠEisenbahn": 6325,
      "Ġentsprechenden": 6326,
      "Wel": 6327,
      "sprechen": 6328,
      "Ġwirst": 6329,
      "ĠStandort": 6330,
      "ĠDist": 6331,
      "ĠMehrheit": 6332,
      "ĠKonzept": 6333,
      "ĠZÃ¼r": 6334,
      "ĠvollstÃ¤ndig": 6335,
      "uni": 6336,
      "Ġbegonnen": 6337,
      "ĠGeschÃ¤ft": 6338,
      "siehe": 6339,
      "AU": 6340,
      "schlieÃŁen": 6341,
      "ĠPaar": 6342,
      "ĠStraf": 6343,
      "famil": 6344,
      "ĠBÃ¼hne": 6345,
      "ktiven": 6346,
      "Ġbeschlossen": 6347,
      "ĠPsych": 6348,
      "Nr": 6349,
      "ĠGrad": 6350,
      "technik": 6351,
      "ĠAutom": 6352,
      "wal": 6353,
      "ĠGemeinsam": 6354,
      "ĠÃĸffentlichkeit": 6355,
      "\").": 6356,
      "ĠwÃ¤ren": 6357,
      "ĠFrem": 6358,
      "mor": 6359,
      "irol": 6360,
      "Ġreag": 6361,
      "jenigen": 6362,
      "wischen": 6363,
      "forschung": 6364,
      "ĠEreig": 6365,
      "Ġtechnischen": 6366,
      "ĠNik": 6367,
      "zufÃ¼hren": 6368,
      "rÃ¼st": 6369,
      "Ġautomat": 6370,
      "Ġ\"(": 6371,
      "ĠWirkung": 6372,
      "Insgesamt": 6373,
      "geschoss": 6374,
      "cks": 6375,
      "ĠStoff": 6376,
      "tes": 6377,
      "ĠMach": 6378,
      "titel": 6379,
      "Ġliebe": 6380,
      "vertreten": 6381,
      "Schl": 6382,
      "ĠMig": 6383,
      "stechn": 6384,
      "ĠTruppen": 6385,
      "ĠDauer": 6386,
      "ĠAusgaben": 6387,
      "ĠUmsetzung": 6388,
      "\"),": 6389,
      "ĠhauptsÃ¤chlich": 6390,
      "stÃ¤tte": 6391,
      "ĠgrÃ¼ndete": 6392,
      "ĠnatÃ¼r": 6393,
      "gewicht": 6394,
      "ĠÃ¶ffentliche": 6395,
      "Ġindivid": 6396,
      "ĠendgÃ¼l": 6397,
      "Samstag": 6398,
      "ĠGrenzen": 6399,
      "Ġerschienen": 6400,
      "ĠSow": 6401,
      "ĠRos": 6402,
      "ĠspÃ¤t": 6403,
      "ĠHerzen": 6404,
      "spann": 6405,
      "ĠzusÃ¤tzlich": 6406,
      "antrag": 6407,
      "ĠRob": 6408,
      "ĠÃ¤ndern": 6409,
      "ĠMÃ¶": 6410,
      "Ġausgeb": 6411,
      "ĠHistor": 6412,
      "Ġschloss": 6413,
      "kw": 6414,
      "ĠBade": 6415,
      "Allerdings": 6416,
      "ĠChamp": 6417,
      "ĠDesign": 6418,
      "grÃ¶ÃŁ": 6419,
      "ĠErweiter": 6420,
      "ĠStudenten": 6421,
      "ĠSchn": 6422,
      "ĠWenn": 6423,
      "Ġengag": 6424,
      "ates": 6425,
      "ugen": 6426,
      "ĠPhilipp": 6427,
      "Ġqualif": 6428,
      "ĠKonfl": 6429,
      ")\"": 6430,
      "ree": 6431,
      "ĠDirektor": 6432,
      "ĠErfahrungen": 6433,
      "zeugung": 6434,
      "ĠErmitt": 6435,
      "ĠVergangenheit": 6436,
      "Ġendlich": 6437,
      "ĠSinn": 6438,
      "Ġentwickeln": 6439,
      "ĠKaffe": 6440,
      "Ġerlaubt": 6441,
      "utzer": 6442,
      "Ġschlecht": 6443,
      "lÃ¤ndischen": 6444,
      "Ġkomplett": 6445,
      "Ġdritte": 6446,
      "ĠgeprÃ¤": 6447,
      "AB": 6448,
      "hindern": 6449,
      "Ġgesetzt": 6450,
      "bereit": 6451,
      "ĠDiv": 6452,
      "ction": 6453,
      "Gegen": 6454,
      "Ġgespielt": 6455,
      "ots": 6456,
      "ĠInnov": 6457,
      "Ġgetr": 6458,
      "ĠVis": 6459,
      "ĠDres": 6460,
      "fragt": 6461,
      "Ġsorgen": 6462,
      "Ġwachsen": 6463,
      "ĠVorjahr": 6464,
      "ĠPraxis": 6465,
      "Ã¤hrungs": 6466,
      "Ã¶rdern": 6467,
      "schulen": 6468,
      "ĠLeg": 6469,
      "ellschaften": 6470,
      "ĠSprach": 6471,
      "Ġfuhr": 6472,
      "the": 6473,
      "wn": 6474,
      "kord": 6475,
      "ĠGriechenland": 6476,
      "Ġerwarten": 6477,
      "enter": 6478,
      "Ġoffenbar": 6479,
      "ĠLaufe": 6480,
      "fÃ¼hrten": 6481,
      "DF": 6482,
      "sal": 6483,
      "Ġlegte": 6484,
      "Zeit": 6485,
      "ĠRede": 6486,
      "ĠUrs": 6487,
      "ĠKlei": 6488,
      "ney": 6489,
      "Ġ1976": 6490,
      "ĠBundest": 6491,
      "orien": 6492,
      "fn": 6493,
      "ĠDrit": 6494,
      "ĠParteien": 6495,
      "Ġ65": 6496,
      "ĠSoldaten": 6497,
      "ĠHerstellung": 6498,
      "ĠjÃ¼d": 6499,
      "ĠkÃ¼r": 6500,
      "Ġreicht": 6501,
      "Ġkontro": 6502,
      "ĠfrÃ¼heren": 6503,
      "ikations": 6504,
      "Frank": 6505,
      "Ġmittlerweile": 6506,
      "reude": 6507,
      "sem": 6508,
      "Ġsteigen": 6509,
      "61": 6510,
      "ove": 6511,
      "Ġhingegen": 6512,
      "ĠHalle": 6513,
      "ĠAngriff": 6514,
      "62": 6515,
      "Ġ1977": 6516,
      "Ġverheiratet": 6517,
      "las": 6518,
      "igi": 6519,
      "ĠVeranstaltung": 6520,
      "uper": 6521,
      "ford": 6522,
      "ĠKlassen": 6523,
      "ĠHaushalt": 6524,
      "Ġsec": 6525,
      "aute": 6526,
      "ĠZuf": 6527,
      "organisation": 6528,
      "ĠjÃ¤hrlich": 6529,
      "Ġdank": 6530,
      "Ġvermut": 6531,
      "ehlt": 6532,
      "ĠDrogen": 6533,
      "Ġpage": 6534,
      "ĠLeistungs": 6535,
      "Ġ1974": 6536,
      "ĠZul": 6537,
      "ĠBrun": 6538,
      "tlichen": 6539,
      "stoÃŁ": 6540,
      "rhein": 6541,
      "ĠGeheim": 6542,
      "gÃ¤nge": 6543,
      "lager": 6544,
      "reng": 6545,
      "ĠEinrichtungen": 6546,
      "ĠÃ¼berw": 6547,
      "Ġunterschiedlichen": 6548,
      "Ã¸": 6549,
      "Berlin": 6550,
      "Sti": 6551,
      "tain": 6552,
      "ĠGÃ¼ter": 6553,
      "ĠAusdruck": 6554,
      "ĠBischof": 6555,
      "Ġstieg": 6556,
      "Ġrest": 6557,
      "ziehung": 6558,
      "ret": 6559,
      "Ġ1973": 6560,
      "Ġusw": 6561,
      "Univers": 6562,
      "hauses": 6563,
      "immobil": 6564,
      "ĠAktivitÃ¤ten": 6565,
      "ĠCharl": 6566,
      "wendungen": 6567,
      "ĠweiÃŁt": 6568,
      "Ġ()": 6569,
      "Ãĩ": 6570,
      "ĠsÃ¼dlich": 6571,
      "ĠBelgien": 6572,
      "geschrieben": 6573,
      "ĠMedizin": 6574,
      "ĠOffen": 6575,
      "ask": 6576,
      "!\"": 6577,
      "ĠSchwier": 6578,
      "Ã¤ndler": 6579,
      "Ġersetzt": 6580,
      "ĠBehandlung": 6581,
      "ritts": 6582,
      "TR": 6583,
      "aÃŁt": 6584,
      "reiter": 6585,
      "Ã¶rderung": 6586,
      "ĠColle": 6587,
      "ĠSpitzen": 6588,
      "Produ": 6589,
      "zeichnen": 6590,
      "Ġgriech": 6591,
      "Ġvermutlich": 6592,
      "ĠIN": 6593,
      "uman": 6594,
      "Ã¤h": 6595,
      "Ġlaufen": 6596,
      "ĠHan": 6597,
      "ĠbegrÃ¼": 6598,
      "ĠberÃ¼hm": 6599,
      "Ã¼rn": 6600,
      "syl": 6601,
      "ĠÃ¤lte": 6602,
      "Ġbeschrieben": 6603,
      "ĠBill": 6604,
      "liste": 6605,
      "ĠMass": 6606,
      "ya": 6607,
      "ĠBier": 6608,
      "ĠÃĸl": 6609,
      "partment": 6610,
      "Ġ1000": 6611,
      "ĠSchwar": 6612,
      "fu": 6613,
      "ĠPunkten": 6614,
      "Ġerinnert": 6615,
      "Ġgesetz": 6616,
      "ĠHaar": 6617,
      "Ã§": 6618,
      "kirchen": 6619,
      "Ġvorge": 6620,
      "Ġernannt": 6621,
      "werks": 6622,
      "ĠHintergrund": 6623,
      "ĠZustand": 6624,
      "ĠEinrichtung": 6625,
      "ĠAusnahme": 6626,
      "Ġren": 6627,
      "ĠStÃ¤r": 6628,
      "icherheit": 6629,
      "bauten": 6630,
      "Ġkonk": 6631,
      "Ġtief": 6632,
      "ĠOrgan": 6633,
      "ĠTreff": 6634,
      "ĠVerantwortung": 6635,
      "ĠWachstum": 6636,
      "cis": 6637,
      "Ã¤ngnis": 6638,
      "Ġreduz": 6639,
      "Kann": 6640,
      "Ġq": 6641,
      "fekt": 6642,
      "ĠBÃ¼ro": 6643,
      "app": 6644,
      "pfl": 6645,
      "ĠGelÃ¤nde": 6646,
      "ĠgetÃ¶": 6647,
      "Ġster": 6648,
      "ĠFahrzeuge": 6649,
      "ĠUrlaub": 6650,
      "ĠgroÃŁes": 6651,
      "ĠWin": 6652,
      "messen": 6653,
      "ĠGatt": 6654,
      "Ġdamaligen": 6655,
      "icherungs": 6656,
      "komp": 6657,
      "ĠAgen": 6658,
      "ĠHart": 6659,
      "verkehrs": 6660,
      "onom": 6661,
      "ales": 6662,
      "atein": 6663,
      "zo": 6664,
      "meter": 6665,
      "ĠWege": 6666,
      "Fin": 6667,
      "ebook": 6668,
      "ĠbestÃ¤tigt": 6669,
      "ĠZer": 6670,
      "Star": 6671,
      "System": 6672,
      "stock": 6673,
      "Hast": 6674,
      "fon": 6675,
      "Ġhistorischen": 6676,
      "Ġdenken": 6677,
      "ĠEinfuhr": 6678,
      "Ġdur": 6679,
      "leger": 6680,
      "228": 6681,
      "ĠMex": 6682,
      "ĠWohl": 6683,
      "holen": 6684,
      "orb": 6685,
      "ĠWilliam": 6686,
      "Ġniedr": 6687,
      "ĠeinschlieÃŁlich": 6688,
      "ĠPapier": 6689,
      "ĠStrand": 6690,
      "fa": 6691,
      "Ġbefand": 6692,
      "ilvia": 6693,
      "blei": 6694,
      "anze": 6695,
      "Einen": 6696,
      "dt": 6697,
      "gyp": 6698,
      "Haus": 6699,
      "Ġbesonderen": 6700,
      "ĠHu": 6701,
      "deu": 6702,
      "Ġvern": 6703,
      "liefert": 6704,
      "zin": 6705,
      "Ġbekam": 6706,
      "ĠBinnen": 6707,
      "ĠtÃ¼rk": 6708,
      "ĠRegional": 6709,
      "Ġbegr": 6710,
      "ĠBÃ¼cher": 6711,
      "stellungs": 6712,
      "Ġlernen": 6713,
      "ĠAnspruch": 6714,
      "vn": 6715,
      "Ã¶ffnen": 6716,
      "gerufen": 6717,
      "Ġ37": 6718,
      "ĠBrit": 6719,
      "ĠEinsch": 6720,
      "Donnerstag": 6721,
      "Ġprivaten": 6722,
      "Ġdo": 6723,
      "ĠBaden": 6724,
      "ĠAusland": 6725,
      "ĠRestaurant": 6726,
      "ĠAbkommen": 6727,
      "sozial": 6728,
      "Ġtime": 6729,
      "Soll": 6730,
      "ĠPet": 6731,
      "Bez": 6732,
      "ĠPflege": 6733,
      "Ser": 6734,
      "bern": 6735,
      "ĠSchwarz": 6736,
      "Ġverhindern": 6737,
      "oche": 6738,
      "Ã¶ffnung": 6739,
      "het": 6740,
      "Gleich": 6741,
      "ĠKÃ¼che": 6742,
      "ĠBreakfast": 6743,
      "ĠDÃ¤nemark": 6744,
      "ĠglÃ¼ck": 6745,
      "Ġstanden": 6746,
      "ĠBeschwer": 6747,
      "ĠEind": 6748,
      "rill": 6749,
      "ĠTechnologie": 6750,
      "ĠgrÃ¶ÃŁeren": 6751,
      "ĠEuropas": 6752,
      "Me": 6753,
      "ĠSitzung": 6754,
      "ladys": 6755,
      "Vertrag": 6756,
      "Ġ55": 6757,
      "ĠZweck": 6758,
      "Ġgez": 6759,
      "ĠWochenende": 6760,
      "ymnasium": 6761,
      "andt": 6762,
      "FR": 6763,
      "ĠKirch": 6764,
      "ĠAber": 6765,
      "ĠTreffen": 6766,
      "Ġdauer": 6767,
      "ĠSaint": 6768,
      "ĠBack": 6769,
      "Ġverur": 6770,
      "bten": 6771,
      "ĠRÃ¶": 6772,
      "ĠUntersuchung": 6773,
      "ĠGroÃŁbritannien": 6774,
      "Ġmo": 6775,
      "hington": 6776,
      "Ph": 6777,
      "Åį": 6778,
      "meer": 6779,
      "Ġnud": 6780,
      "ĠHom": 6781,
      "Ãł": 6782,
      "decken": 6783,
      "ĠSchlÃ¼ssel": 6784,
      "auert": 6785,
      "maschinen": 6786,
      "Ġausgestattet": 6787,
      "ĠzÃ¤hlt": 6788,
      "Ġ<": 6789,
      "ISCH": 6790,
      "Ġ85": 6791,
      "anische": 6792,
      "eige": 6793,
      "ĠSyn": 6794,
      "kohol": 6795,
      "ĠGegner": 6796,
      "lÃ¶sung": 6797,
      "ĠzurÃ¼ckge": 6798,
      "ladysilvia": 6799,
      "mode": 6800,
      "ĠGewerk": 6801,
      "ĠPortugal": 6802,
      "ĠStefan": 6803,
      "rufe": 6804,
      "Ġbisschen": 6805,
      "ĠWall": 6806,
      "Ġ39": 6807,
      "ĠnÃ¶rdlich": 6808,
      "garn": 6809,
      "ĠOlympischen": 6810,
      "NatÃ¼rlich": 6811,
      "ĠBezirks": 6812,
      "onders": 6813,
      "ĠBestimmungen": 6814,
      "ĠAgrar": 6815,
      "Ġneg": 6816,
      "Ġsen": 6817,
      "irektor": 6818,
      "afft": 6819,
      "ĠHÃ¶r": 6820,
      "regel": 6821,
      "polit": 6822,
      "Los": 6823,
      "ĠSant": 6824,
      "teilte": 6825,
      "ĠGedanken": 6826,
      "Ġdeinen": 6827,
      "Ã¡Ã": 6828,
      "Ġabsolvierte": 6829,
      "Ġumfang": 6830,
      "ĠKarte": 6831,
      "Mo": 6832,
      "ĠStudie": 6833,
      "konom": 6834,
      "Ã¶ch": 6835,
      "Ġdennoch": 6836,
      "ĠBron": 6837,
      "Quelle": 6838,
      "Ġschwar": 6839,
      "ĠVereinbar": 6840,
      "ĠLos": 6841,
      "Ġweiteres": 6842,
      "ĠSchu": 6843,
      "Ġzufrieden": 6844,
      "Ġtrifft": 6845,
      "Ġverlor": 6846,
      "ĠZuschauer": 6847,
      "ĠAfr": 6848,
      "ln": 6849,
      "Ant": 6850,
      "ĠBayer": 6851,
      "bliothek": 6852,
      "ĠKoalition": 6853,
      "ĠGrÃ¼nen": 6854,
      "ĠFÃ¤h": 6855,
      "Ġernst": 6856,
      "ĠDetail": 6857,
      "tiges": 6858,
      "ĠAg": 6859,
      "ĠErklÃ¤rung": 6860,
      "hoff": 6861,
      "ĠWehr": 6862,
      "ĠhieÃŁ": 6863,
      "CO": 6864,
      "ĠKurs": 6865,
      "sph": 6866,
      "nischen": 6867,
      "Ġzuerst": 6868,
      "riester": 6869,
      "sm": 6870,
      "baum": 6871,
      "Anzahl": 6872,
      "ĠLou": 6873,
      "ĠPor": 6874,
      "ĠFakt": 6875,
      "ĠermÃ¶glichen": 6876,
      "gels": 6877,
      "ĠDaniel": 6878,
      "ĠNa": 6879,
      "Ad": 6880,
      "Ġnennen": 6881,
      "eicher": 6882,
      "ĠForder": 6883,
      "iol": 6884,
      "Ġthat": 6885,
      "ĠlÃ¤ng": 6886,
      "unken": 6887,
      "fonds": 6888,
      "ĠMetall": 6889,
      "fur": 6890,
      "izieren": 6891,
      "ĠKammer": 6892,
      "ibel": 6893,
      "ĠVerpflicht": 6894,
      "Ġ1968": 6895,
      "tu": 6896,
      "una": 6897,
      "weite": 6898,
      "ĠMac": 6899,
      "Ġmanchmal": 6900,
      "Ġndu": 6901,
      "Ġ&#": 6902,
      "ratete": 6903,
      "ĠungefÃ¤hr": 6904,
      "Ġudn": 6905,
      "nee": 6906,
      "Ġverp": 6907,
      "ĠTechnolog": 6908,
      "ritz": 6909,
      "Ġamerikanischen": 6910,
      "ĠQual": 6911,
      "ĠShow": 6912,
      "nitt": 6913,
      "Ġma": 6914,
      "ĠStellungnahme": 6915,
      "ĠArzt": 6916,
      "Ach": 6917,
      "ĠeingefÃ¼hrt": 6918,
      "ĠMikro": 6919,
      ",\"": 6920,
      "Ġdnu": 6921,
      "ĠTschech": 6922,
      "oben": 6923,
      "kore": 6924,
      "****": 6925,
      "\",\"": 6926,
      "atter": 6927,
      "zahlt": 6928,
      "Ġelf": 6929,
      "ĠTom": 6930,
      "Ġeins": 6931,
      "forderung": 6932,
      "Ġnahmen": 6933,
      "ĠMetern": 6934,
      "eir": 6935,
      "ĠKategorie": 6936,
      "ĠKapit": 6937,
      "eral": 6938,
      "ĠGran": 6939,
      "ĠGrab": 6940,
      "Ġmar": 6941,
      "ulen": 6942,
      "aps": 6943,
      "ternehmer": 6944,
      "ĠTodes": 6945,
      "ĠMosk": 6946,
      "ĠgeÃ¤ndert": 6947,
      "ĠJuden": 6948,
      "ĠFinale": 6949,
      "ĠprÃ¼": 6950,
      "etzungen": 6951,
      "2000": 6952,
      "hoch": 6953,
      "ĠWohnungen": 6954,
      "Einige": 6955,
      "sex": 6956,
      "waren": 6957,
      "Ġhr": 6958,
      "Ġziemlich": 6959,
      "ĠHinblick": 6960,
      "ĠInitiative": 6961,
      "ĠFrÃ¼hjahr": 6962,
      "ĠSchmid": 6963,
      "Ġkor": 6964,
      "ĠhÃ¶r": 6965,
      "emer": 6966,
      "Ġdienen": 6967,
      "ulation": 6968,
      "ziehungs": 6969,
      "Foto": 6970,
      "ĠHaut": 6971,
      "AD": 6972,
      "plo": 6973,
      "Part": 6974,
      "Ġanerk": 6975,
      "Mich": 6976,
      "ĠVersuch": 6977,
      "Ġdisku": 6978,
      "ĠÃ¼bertragen": 6979,
      "Ġme": 6980,
      "Ġentdeckt": 6981,
      "gende": 6982,
      "ĠÃ¶ffentlich": 6983,
      "DarÃ¼ber": 6984,
      "ĠAnsicht": 6985,
      "lieÃŁlich": 6986,
      "ĠÃ¤hnlich": 6987,
      "Ġentweder": 6988,
      "ĠÃ¼bernehmen": 6989,
      "Ġverurs": 6990,
      "Fahr": 6991,
      "holz": 6992,
      "arn": 6993,
      "Ġ48": 6994,
      "weist": 6995,
      "Ġwe": 6996,
      "\":\"": 6997,
      "Ġerscheint": 6998,
      "kauft": 6999,
      "dresse": 7000,
      "ĠKapital": 7001,
      "Ã¶rung": 7002,
      "ĠCounty": 7003,
      "Ã¤chs": 7004,
      "ville": 7005,
      "ĠDÃ¼sseldorf": 7006,
      "rand": 7007,
      "bezogen": 7008,
      "klag": 7009,
      "SC": 7010,
      "ĠSl": 7011,
      "Ġmiteinander": 7012,
      "ĠTabellen": 7013,
      "ĠWettbewerbs": 7014,
      "ouver": 7015,
      "rÃ¤f": 7016,
      "ĠAufnahme": 7017,
      "ĠspÃ¤teren": 7018,
      "ĠBrÃ¼ssel": 7019,
      "mitglied": 7020,
      "ĠVeranstaltungen": 7021,
      "ĠTurm": 7022,
      "ĠHoll": 7023,
      "ĠflieÃŁ": 7024,
      "eiern": 7025,
      "ĠSw": 7026,
      "lehr": 7027,
      "ĠKarten": 7028,
      "ĠKenn": 7029,
      "Ġeingerichtet": 7030,
      "ĠFinanzierung": 7031,
      "ĠErinner": 7032,
      "steiger": 7033,
      "uropa": 7034,
      "Ġwichtigen": 7035,
      "Ġ92": 7036,
      "schn": 7037,
      "ĠÂ«": 7038,
      "Ġzugleich": 7039,
      "ĠReichs": 7040,
      "ĠKonferenz": 7041,
      "ĠTurnier": 7042,
      "ĠHersteller": 7043,
      "ieur": 7044,
      "ory": 7045,
      "Ġtritt": 7046,
      "ĠArbeitgeber": 7047,
      "sequ": 7048,
      "ĠEinheit": 7049,
      "achtung": 7050,
      "ĠEinwohnern": 7051,
      "ĠFans": 7052,
      "Ġbeit": 7053,
      "ous": 7054,
      "ameister": 7055,
      "bef": 7056,
      "rs": 7057,
      "ĠAbschnitt": 7058,
      "essour": 7059,
      "messer": 7060,
      "Ġspezif": 7061,
      "ĠLied": 7062,
      "Ġmusikal": 7063,
      "Ġbehandelt": 7064,
      "ĠÃĦnderungen": 7065,
      "izierte": 7066,
      "Ġangegeben": 7067,
      "ĠgetÃ¶tet": 7068,
      "Ã¼ndet": 7069,
      "ĠAlters": 7070,
      "ĠMitgliedstaat": 7071,
      "iw": 7072,
      "ernt": 7073,
      "heimer": 7074,
      "prÃ¤sent": 7075,
      "liefer": 7076,
      "ĠKlaus": 7077,
      "Sc": 7078,
      "Ġverg": 7079,
      "jekten": 7080,
      "ehnte": 7081,
      "ĠBezirk": 7082,
      "hop": 7083,
      "legte": 7084,
      "Ġabgel": 7085,
      "Ġwusste": 7086,
      "ĠSm": 7087,
      "ĠSekunden": 7088,
      "ĠKont": 7089,
      "ĠCarl": 7090,
      "ĠProp": 7091,
      "Ġlieber": 7092,
      "ader": 7093,
      "hÃ¶ren": 7094,
      "lÃ¤uter": 7095,
      "schlossen": 7096,
      "ĠAnfrage": 7097,
      "Ġherum": 7098,
      "IG": 7099,
      "Mann": 7100,
      "Ġsex": 7101,
      "ĠTanz": 7102,
      "ĠWindows": 7103,
      "ĠRichard": 7104,
      "Ġfehl": 7105,
      "Ġerl": 7106,
      "ĠAnn": 7107,
      "hafte": 7108,
      "vertreter": 7109,
      "rd": 7110,
      "ĠnÃ¤her": 7111,
      "hofs": 7112,
      "ĠEngagement": 7113,
      "Ġstat": 7114,
      "Bereits": 7115,
      "ĠCal": 7116,
      "bedingt": 7117,
      "partner": 7118,
      "kund": 7119,
      "ĠWand": 7120,
      "ĠCan": 7121,
      "ĠEP": 7122,
      "ĠRadio": 7123,
      "ĠLÃ¼": 7124,
      "Ġwichtiger": 7125,
      "ĠSÃ¶": 7126,
      "ses": 7127,
      "ĠVorstand": 7128,
      "HR": 7129,
      "Ġoffiziell": 7130,
      "versorgung": 7131,
      "kammer": 7132,
      "ĠBundesliga": 7133,
      "ĠHochschule": 7134,
      "ĠPrÃ¼fung": 7135,
      "ĠmilitÃ¤r": 7136,
      "Ġno": 7137,
      "ĠEben": 7138,
      "lowak": 7139,
      "afen": 7140,
      "Ġstarken": 7141,
      "IR": 7142,
      "bezirk": 7143,
      "umme": 7144,
      "hÃ¤re": 7145,
      "Ġkehrte": 7146,
      "Ġyour": 7147,
      "DP": 7148,
      "Ġkommun": 7149,
      "Ġintens": 7150,
      "ĠDor": 7151,
      "ĠWolfgang": 7152,
      "serie": 7153,
      "Aug": 7154,
      "Hol": 7155,
      "ownload": 7156,
      "Ġerzielte": 7157,
      "richter": 7158,
      "aser": 7159,
      "ĠSonne": 7160,
      "ross": 7161,
      "dienste": 7162,
      "ĠTeilen": 7163,
      "ĠGemeinder": 7164,
      "ĠSchuld": 7165,
      "nov": 7166,
      "ĠRud": 7167,
      "Ġsehe": 7168,
      "ye": 7169,
      "Pf": 7170,
      "ĠAnalyse": 7171,
      "ĠHeiligen": 7172,
      "ĠGrundstÃ¼ck": 7173,
      "arischen": 7174,
      "Ġ1971": 7175,
      "Ġchines": 7176,
      "ando": 7177,
      "Ġkontroll": 7178,
      "ziplin": 7179,
      "funk": 7180,
      "chem": 7181,
      "ĠKoordin": 7182,
      "Ġonline": 7183,
      "ĠFotos": 7184,
      "tement": 7185,
      "Ġ42": 7186,
      "imen": 7187,
      "ext": 7188,
      "Freit": 7189,
      "athemat": 7190,
      "Ġfreien": 7191,
      "Deutschland": 7192,
      "2004": 7193,
      "ĠStern": 7194,
      "ĠGewinn": 7195,
      "ĠVerd": 7196,
      "ĠAnlagen": 7197,
      "Ġdient": 7198,
      "herapie": 7199,
      "ĠAutos": 7200,
      "ĠAufbau": 7201,
      "zieht": 7202,
      "ĠzerstÃ¶rt": 7203,
      "roht": 7204,
      "ĠMÃ¼nster": 7205,
      "ĠOrtsteil": 7206,
      "ĠFund": 7207,
      "ĠSign": 7208,
      "abs": 7209,
      "Ã¼mer": 7210,
      "dens": 7211,
      "eting": 7212,
      "anen": 7213,
      "ĠAbteilung": 7214,
      "zeige": 7215,
      "Ġdel": 7216,
      "ĠInvestition": 7217,
      "werten": 7218,
      "ĠKombin": 7219,
      "ifferen": 7220,
      "astian": 7221,
      "ĠÅ": 7222,
      "ĠArm": 7223,
      "ĠDra": 7224,
      "zÃ¼ge": 7225,
      "La": 7226,
      "Ġjapan": 7227,
      "Ġgeringer": 7228,
      "rÃ¤nkt": 7229,
      "Ġdenk": 7230,
      "ĠLuxemburg": 7231,
      "ĠVerÃ¶ffentlichung": 7232,
      "schluÃŁ": 7233,
      "arry": 7234,
      "ĠInvestitionen": 7235,
      "ĠErwachsen": 7236,
      "ĠKredit": 7237,
      "Ġdaraufhin": 7238,
      "BER": 7239,
      "ĠKro": 7240,
      "ĠKÃ¤": 7241,
      "ĠAbl": 7242,
      "Ġkomme": 7243,
      "Ġfra": 7244,
      "ĠJazz": 7245,
      "Ġsicht": 7246,
      "Fol": 7247,
      "Ġbeeinfl": 7248,
      "ĠCont": 7249,
      "Ã¶rter": 7250,
      "ĠReserv": 7251,
      "Ġitalienischen": 7252,
      "itsch": 7253,
      "ĠSar": 7254,
      "iers": 7255,
      "ĠRegeln": 7256,
      "ĠHigh": 7257,
      "ils": 7258,
      "ĠStadtteil": 7259,
      "Ġweist": 7260,
      "gers": 7261,
      "ĠRelig": 7262,
      "ĠKonkur": 7263,
      "ĠAst": 7264,
      "Ġ1933": 7265,
      "ĠWahrheit": 7266,
      "Ġ44": 7267,
      "Ġkaufen": 7268,
      "Ġli": 7269,
      "Ġzieht": 7270,
      "ĠGeschle": 7271,
      "nicht": 7272,
      "ĠVerhandlungen": 7273,
      "ĠAnforderungen": 7274,
      "ĠDanach": 7275,
      "Jul": 7276,
      "ican": 7277,
      "ĠverfÃ¼gbar": 7278,
      "images": 7279,
      "Ġzeich": 7280,
      "ĠMilch": 7281,
      "sekretÃ¤r": 7282,
      "Ġdiente": 7283,
      "unsten": 7284,
      "ĠVal": 7285,
      "Ġergeben": 7286,
      "Ġter": 7287,
      "artet": 7288,
      "sper": 7289,
      "bas": 7290,
      "rink": 7291,
      "Freitag": 7292,
      "Ġiden": 7293,
      "ĠJunge": 7294,
      "freund": 7295,
      "iller": 7296,
      "ĠStiftung": 7297,
      "enntnisse": 7298,
      "rim": 7299,
      "Ã¤tter": 7300,
      "Pol": 7301,
      "ĠMord": 7302,
      "ĠGlauben": 7303,
      "ĠUnterricht": 7304,
      "Ġleisten": 7305,
      "Ġverwenden": 7306,
      "iede": 7307,
      "Ġbi": 7308,
      "region": 7309,
      "din": 7310,
      "Ġweitgehend": 7311,
      "reck": 7312,
      "ĠReal": 7313,
      "Hotel": 7314,
      "ĠAusbildungs": 7315,
      "ĠMerkel": 7316,
      "Haben": 7317,
      "ĠSub": 7318,
      "ĠVerm": 7319,
      "ieh": 7320,
      "annen": 7321,
      "ĠFormen": 7322,
      "Akt": 7323,
      "su": 7324,
      "National": 7325,
      "ĠGal": 7326,
      "ĠmÃ¶glichst": 7327,
      "Ġmehrfach": 7328,
      "ĠSchauspieler": 7329,
      "ĠTeilnahme": 7330,
      "ehmigung": 7331,
      "ĠZÃ¼rich": 7332,
      "ĠTeams": 7333,
      "ĠBÃ¤": 7334,
      "SS": 7335,
      "ĠzustÃ¤ndig": 7336,
      "wÃ¤": 7337,
      "Ġbetrieben": 7338,
      "Ġverbessern": 7339,
      "ĠManagement": 7340,
      "ĠstÃ¤d": 7341,
      "klass": 7342,
      "ĠAud": 7343,
      "Ġpre": 7344,
      "gin": 7345,
      "itutionen": 7346,
      "ĠFÃ¼": 7347,
      "atik": 7348,
      "Ġhergestellt": 7349,
      "ĠDritt": 7350,
      "stÃ¤nden": 7351,
      "Grund": 7352,
      "zenz": 7353,
      "ssystem": 7354,
      "ĠQuadrat": 7355,
      "ĠInner": 7356,
      "Ġbetont": 7357,
      "ria": 7358,
      "ĠStimme": 7359,
      "Ġ1969": 7360,
      "Ġsogenannte": 7361,
      "Ġbeweg": 7362,
      "ĠLebensmittel": 7363,
      "ĠFinn": 7364,
      "ĠChancen": 7365,
      "Ã¤tigkeiten": 7366,
      "ĠTonnen": 7367,
      "ĠTore": 7368,
      "orm": 7369,
      "Gew": 7370,
      "sphÃ¤re": 7371,
      "steigen": 7372,
      "iguren": 7373,
      "ĠEntscheidungen": 7374,
      "daten": 7375,
      "Ġbekommt": 7376,
      "ĠHÃ¼": 7377,
      "ĠMusiker": 7378,
      "dels": 7379,
      "handlung": 7380,
      "ii": 7381,
      "ĠMod": 7382,
      "ĠVf": 7383,
      "Ġheil": 7384,
      "Ġ1920": 7385,
      "ĠGelegenheit": 7386,
      "Ġunbek": 7387,
      "ĠAllgemein": 7388,
      "graben": 7389,
      "Ġstarke": 7390,
      "ĠhÃ¶chsten": 7391,
      "usion": 7392,
      "isseur": 7393,
      "ted": 7394,
      "ĠverlieÃŁ": 7395,
      "kultur": 7396,
      "ĠbegrÃ¼n": 7397,
      "ĠVerlauf": 7398,
      "innern": 7399,
      "ĠBrÃ¼cke": 7400,
      "ĠJoseph": 7401,
      "ĠzusÃ¤tzliche": 7402,
      "ĠOh": 7403,
      "Inst": 7404,
      "law": 7405,
      "ktien": 7406,
      "Ġfeier": 7407,
      "ĠFahrt": 7408,
      "ĠFa": 7409,
      "ĠIrland": 7410,
      "emit": 7411,
      "zone": 7412,
      "ĠÃľberein": 7413,
      "ĠMond": 7414,
      "ersonen": 7415,
      "Ġnachhal": 7416,
      "ĠRettungs": 7417,
      "zum": 7418,
      "ziger": 7419,
      "At": 7420,
      "ĠKomment": 7421,
      "Ġefs": 7422,
      "Gl": 7423,
      "ior": 7424,
      "ĠFleisch": 7425,
      "vt": 7426,
      "ĠBonn": 7427,
      "Ġbenannt": 7428,
      "Ġvan": 7429,
      "ĠMand": 7430,
      "ues": 7431,
      "ube": 7432,
      "Ġsub": 7433,
      "ĠRathaus": 7434,
      "Ġstellvertreten": 7435,
      "amens": 7436,
      "ĠVerÃ¤nderungen": 7437,
      "Ġgesprochen": 7438,
      "ausend": 7439,
      "Ġvorber": 7440,
      "isieren": 7441,
      "unger": 7442,
      "ĠzÃ¤hlen": 7443,
      "PrÃ¤sident": 7444,
      "tret": 7445,
      "Dr": 7446,
      "usern": 7447,
      "wissenschaften": 7448,
      "fangen": 7449,
      "ĠWerte": 7450,
      "Ġdurchaus": 7451,
      "isst": 7452,
      "Ġeingesch": 7453,
      "hÃ¤nger": 7454,
      "Ã¼nder": 7455,
      "Hin": 7456,
      "Mon": 7457,
      "Ġ1930": 7458,
      "versicherung": 7459,
      "ĠSau": 7460,
      "Ġ]": 7461,
      "ĠSong": 7462,
      "rÃ¤nk": 7463,
      "Ġdaraus": 7464,
      "ĠDek": 7465,
      "dl": 7466,
      "ĠMerk": 7467,
      "ĠUrteil": 7468,
      "Ġwid": 7469,
      "Ã¼ren": 7470,
      "Ġguter": 7471,
      "ĠLok": 7472,
      "ĠHy": 7473,
      "ĠRenn": 7474,
      "bauer": 7475,
      "New": 7476,
      "ĠAusgabe": 7477,
      "ĠAma": 7478,
      "artige": 7479,
      "maschine": 7480,
      "/?": 7481,
      "grenze": 7482,
      "ikaner": 7483,
      "minist": 7484,
      "Ġerstes": 7485,
      "Ã¼rgen": 7486,
      "aktiv": 7487,
      "ausende": 7488,
      "ĠIntegration": 7489,
      "Ġ43": 7490,
      "Ãī": 7491,
      "Ġfordert": 7492,
      "oman": 7493,
      "ĠBremen": 7494,
      "Ġbenutzt": 7495,
      "ĠkÃ¼nftig": 7496,
      "ĠSC": 7497,
      "schafter": 7498,
      "ĠFo": 7499,
      "ĠMission": 7500,
      "Ġgalt": 7501,
      "Ġberichtete": 7502,
      "Ġtrotzdem": 7503,
      "Ġwirtschaftliche": 7504,
      "ichert": 7505,
      "ĠSun": 7506,
      "ĠjÃ¼nger": 7507,
      "Ġcon": 7508,
      "ĠJungen": 7509,
      "ĠHall": 7510,
      "lÃ¤uf": 7511,
      "alte": 7512,
      "Ġmache": 7513,
      "scheidung": 7514,
      "Ġentsprechende": 7515,
      "Ã¤dag": 7516,
      "indet": 7517,
      "Ġtechnische": 7518,
      "Ġpassen": 7519,
      "ĠGerichtshof": 7520,
      "Lie": 7521,
      "Ã¤hlten": 7522,
      "ĠNo": 7523,
      "Ã¶ÃŁen": 7524,
      "HL": 7525,
      "Stadt": 7526,
      "reffend": 7527,
      "Ã¼nden": 7528,
      "ĠAngelegen": 7529,
      "ĠVorschriften": 7530,
      "ĠOrganisationen": 7531,
      "Ã³n": 7532,
      "Christ": 7533,
      "hst": 7534,
      "ĠsÃ¤m": 7535,
      "ĠAusschusses": 7536,
      "ĠIdeen": 7537,
      "izierung": 7538,
      "zog": 7539,
      "ĠLen": 7540,
      "rans": 7541,
      "ĠâĢ¢": 7542,
      "Ġtraf": 7543,
      "ato": 7544,
      "2005": 7545,
      "Ġevangel": 7546,
      "ĠTÃ¤ter": 7547,
      "Ober": 7548,
      "ucher": 7549,
      "ĠAusschuÃŁ": 7550,
      "Ġbreit": 7551,
      "urn": 7552,
      "Äį": 7553,
      "ĠRing": 7554,
      "ĠAuft": 7555,
      "text": 7556,
      "ĠAufstieg": 7557,
      "Ġelektr": 7558,
      "strÃ¤ger": 7559,
      "Selbst": 7560,
      "ĠBeob": 7561,
      "ĠerhÃ¶ht": 7562,
      "ĠInterview": 7563,
      "vi": 7564,
      "ĠPhilosoph": 7565,
      "Ġletzter": 7566,
      "2001": 7567,
      "undert": 7568,
      "chner": 7569,
      "Ã¤hler": 7570,
      "ump": 7571,
      "raw": 7572,
      "ĠSachen": 7573,
      "ĠJosef": 7574,
      "arlehen": 7575,
      "ĠVorder": 7576,
      "Em": 7577,
      "ennis": 7578,
      "orfen": 7579,
      "ogle": 7580,
      "Ġeingestellt": 7581,
      "endung": 7582,
      "ĠRÃ¼ckkehr": 7583,
      "ĠPrinzip": 7584,
      "Ġsamm": 7585,
      "greifen": 7586,
      "Ġverpflichtet": 7587,
      "llung": 7588,
      "ĠWorld": 7589,
      "ĠOpen": 7590,
      "ĠDenkmal": 7591,
      "Jeder": 7592,
      "rel": 7593,
      "gebiete": 7594,
      "Ġmedizin": 7595,
      "eiÃŁe": 7596,
      "ĠProduktions": 7597,
      "dis": 7598,
      "umente": 7599,
      "ĠfÃ¼": 7600,
      "ony": 7601,
      "ussen": 7602,
      "schaffen": 7603,
      "Drei": 7604,
      "anda": 7605,
      "Ġelektron": 7606,
      "Co": 7607,
      "abeth": 7608,
      "wuchs": 7609,
      "ĠSpann": 7610,
      "ĠerklÃ¤ren": 7611,
      "Ġbemer": 7612,
      "IV": 7613,
      "Ġbetrug": 7614,
      "top": 7615,
      "ausschuss": 7616,
      "Lin": 7617,
      "tigte": 7618,
      "iode": 7619,
      "seits": 7620,
      "Ġsodass": 7621,
      "Ã¤rm": 7622,
      "rib": 7623,
      "prÃ¼ft": 7624,
      "museum": 7625,
      "ĠNÃ¼rn": 7626,
      "alerie": 7627,
      "falen": 7628,
      "EC": 7629,
      "ĠfÃ¶rdern": 7630,
      "Ġunterschiedliche": 7631,
      "Â·": 7632,
      "ku": 7633,
      "Ġfrag": 7634,
      "Ġlief": 7635,
      "ĠKommunikation": 7636,
      "ĠVorhaben": 7637,
      "ĠAnp": 7638,
      "Ġhabt": 7639,
      "een": 7640,
      "Ġgefallen": 7641,
      "ĠAusbau": 7642,
      "Inter": 7643,
      ".).": 7644,
      "otto": 7645,
      "ĠRÃ¤": 7646,
      "Ġrussischen": 7647,
      "Ã¤mpfung": 7648,
      "Ġrechten": 7649,
      "Ġgeeignet": 7650,
      "Â¤": 7651,
      "Ġblau": 7652,
      "zugs": 7653,
      "ĠSex": 7654,
      "Ġzuge": 7655,
      "haften": 7656,
      "station": 7657,
      "ĠZentral": 7658,
      "500": 7659,
      "onstr": 7660,
      "vollen": 7661,
      "ĠSpitze": 7662,
      "')": 7663,
      "sichts": 7664,
      "Ġgering": 7665,
      "Ġbetrifft": 7666,
      "==": 7667,
      "ĠQuellen": 7668,
      "ĠJustiz": 7669,
      "Ġ250": 7670,
      "ĠBa": 7671,
      "Ġausges": 7672,
      "Ġschreibt": 7673,
      "ĠProm": 7674,
      "ĠZen": 7675,
      "Ġejf": 7676,
      "neter": 7677,
      "Ġbehaup": 7678,
      "indert": 7679,
      "hÃ¶he": 7680,
      "amerikanischen": 7681,
      "Ġgleiche": 7682,
      "ĠZivil": 7683,
      "ĠDiskussion": 7684,
      "kom": 7685,
      "isen": 7686,
      "ther": 7687,
      "ĠtÃ¤glich": 7688,
      "Ġkostenlos": 7689,
      "Ã¤tzt": 7690,
      "Ġheiratete": 7691,
      "standen": 7692,
      "ĠInfrastruktur": 7693,
      "produktion": 7694,
      "ĠOtto": 7695,
      "Geh": 7696,
      "umber": 7697,
      "kurs": 7698,
      "falt": 7699,
      "amerika": 7700,
      "Min": 7701,
      "Ġunterschiedlich": 7702,
      "meisterschaften": 7703,
      "fÃ¤llen": 7704,
      "Ġ1938": 7705,
      "orts": 7706,
      "bett": 7707,
      "Ã¼tte": 7708,
      "ĠBeamten": 7709,
      "neider": 7710,
      "Kein": 7711,
      "istenz": 7712,
      "ĠCas": 7713,
      "TL": 7714,
      "ĠBeteiligung": 7715,
      "heben": 7716,
      "Datei": 7717,
      "ĠAnd": 7718,
      "Ġglob": 7719,
      "ĠErsatz": 7720,
      "istin": 7721,
      "Ġbrauche": 7722,
      "ĠRevolution": 7723,
      "Ġhinsichtlich": 7724,
      "FA": 7725,
      "ĠAre": 7726,
      "ĠFischerei": 7727,
      "ĠFreude": 7728,
      "Ġmark": 7729,
      "Ġstimmt": 7730,
      "fter": 7731,
      "ado": 7732,
      "stete": 7733,
      "ostat": 7734,
      "aner": 7735,
      "essourcen": 7736,
      "We": 7737,
      "ĠSchwierigkeiten": 7738,
      "handels": 7739,
      "ĠOct": 7740,
      "ĠSeb": 7741,
      "ĠErzeugnisse": 7742,
      "auso": 7743,
      "ĠSprachen": 7744,
      "ani": 7745,
      "Ã¶tzlich": 7746,
      "tz": 7747,
      "onie": 7748,
      "ĠIV": 7749,
      "Ġspeziell": 7750,
      "grad": 7751,
      "Ġmass": 7752,
      "Ġteilte": 7753,
      "ension": 7754,
      "berech": 7755,
      "erg": 7756,
      "ĠÃ¼berall": 7757,
      "alys": 7758,
      "eins": 7759,
      "Ġaktuell": 7760,
      "Ġ41": 7761,
      "ĠPapst": 7762,
      "kÃ¼nfte": 7763,
      "ĠBereiche": 7764,
      "material": 7765,
      "TEN": 7766,
      "RO": 7767,
      "ĠCSU": 7768,
      "uÃŁball": 7769,
      "Immer": 7770,
      ".),": 7771,
      "ĠFrÃ¼hstÃ¼ck": 7772,
      "ĠDieses": 7773,
      "stern": 7774,
      "ĠSektor": 7775,
      "Ġfreuen": 7776,
      "orth": 7777,
      "ĠVir": 7778,
      "Ġ1939": 7779,
      "Ġtro": 7780,
      "ĠBaby": 7781,
      "prÃ¤sident": 7782,
      "ĠMul": 7783,
      "ĠwÃ¤hlen": 7784,
      "rig": 7785,
      "On": 7786,
      "Ġ1944": 7787,
      "ĠHerrschaft": 7788,
      "erkennung": 7789,
      "Ġfragen": 7790,
      "ĠTourismus": 7791,
      "ĠKapitel": 7792,
      "Chef": 7793,
      "Ġsenden": 7794,
      "Ġtreten": 7795,
      "ĠBeziehung": 7796,
      "rachte": 7797,
      "yle": 7798,
      "ĠSoc": 7799,
      "fc": 7800,
      "annter": 7801,
      "ĠStÃ¤dten": 7802,
      "agne": 7803,
      "ora": 7804,
      "ĠWashington": 7805,
      "ĠÃ¼bersch": 7806,
      "ĠDresden": 7807,
      "ĠschlÃ¤": 7808,
      "AA": 7809,
      "Ġseid": 7810,
      "schlieÃŁung": 7811,
      "rachtet": 7812,
      "ĠJugendlichen": 7813,
      "ĠNachfrage": 7814,
      "tigten": 7815,
      "ĠAward": 7816,
      "Ġverlang": 7817,
      "hnung": 7818,
      "zeigen": 7819,
      "ĠUmsatz": 7820,
      "ĠNah": 7821,
      "Ġinvest": 7822,
      "lings": 7823,
      "Ġgezogen": 7824,
      "issar": 7825,
      "Telefon": 7826,
      "ĠRegelung": 7827,
      "sÃ¤tzlich": 7828,
      "loÃŁ": 7829,
      "ĠStaffel": 7830,
      "nitz": 7831,
      "DER": 7832,
      "Ġfestgelegt": 7833,
      "ĠRosen": 7834,
      "fachen": 7835,
      "ĠRitter": 7836,
      "Vom": 7837,
      "ĠDamit": 7838,
      "ĠAltern": 7839,
      "sid": 7840,
      "otten": 7841,
      "ubil": 7842,
      "machen": 7843,
      "rung": 7844,
      "TA": 7845,
      "ĠDec": 7846,
      "stimmen": 7847,
      "Ġnennt": 7848,
      "UniversitÃ¤t": 7849,
      "ĠGefÃ¤ngnis": 7850,
      "Ġkauf": 7851,
      "ralien": 7852,
      "ĠIns": 7853,
      "ulgar": 7854,
      "Ġpositiv": 7855,
      "ĠverÃ¤ndert": 7856,
      "ĠKanton": 7857,
      "ĠDipl": 7858,
      "ĠJak": 7859,
      "Ġschweren": 7860,
      "Ġfolgten": 7861,
      "Ġwesentlich": 7862,
      "ĠPriester": 7863,
      "Ġunterb": 7864,
      "ĠWel": 7865,
      "ĠInhalt": 7866,
      "dat": 7867,
      "ĠmÃ¶glicherweise": 7868,
      "ĠEich": 7869,
      "Ġhoffe": 7870,
      "Kreis": 7871,
      "ards": 7872,
      "ĠBom": 7873,
      "fristig": 7874,
      "ommun": 7875,
      "KS": 7876,
      "ĠMesse": 7877,
      "rak": 7878,
      "Schw": 7879,
      "Ġdigit": 7880,
      "ĠKal": 7881,
      "ieden": 7882,
      "rÃ¤umen": 7883,
      "ĠFreiheit": 7884,
      "Ġ64": 7885,
      "Ġ1967": 7886,
      "Ġgeist": 7887,
      "zusetzen": 7888,
      "ental": 7889,
      "ĠRÃ¼cken": 7890,
      "Ġ1940": 7891,
      "ual": 7892,
      "Ġaktualisiert": 7893,
      "ĠPrÃ¼f": 7894,
      "chst": 7895,
      "IM": 7896,
      "Lass": 7897,
      "cia": 7898,
      "reut": 7899,
      "ĠRoll": 7900,
      "ĠGebiete": 7901,
      "ĠWeil": 7902,
      "1999": 7903,
      "ĠReisen": 7904,
      "igkeits": 7905,
      "?\"": 7906,
      "ĠDialog": 7907,
      "Ġfunktioniert": 7908,
      "ĠTatsache": 7909,
      "ĠBedÃ¼rf": 7910,
      "ĠAutobahn": 7911,
      "ĠJames": 7912,
      "ĠVorsitzende": 7913,
      "leute": 7914,
      "felder": 7915,
      "Ġstattfinden": 7916,
      "Ġplan": 7917,
      "Ã¤tzung": 7918,
      "jÃ¤hriger": 7919,
      "ĠLuxus": 7920,
      "ĠnÃ¶tig": 7921,
      "karte": 7922,
      "Jan": 7923,
      "ĠGeorge": 7924,
      "ĠBrasil": 7925,
      "ischt": 7926,
      "werken": 7927,
      "Ġerscheinen": 7928,
      "ĠLad": 7929,
      "Ã¼hlen": 7930,
      "ĠSammlung": 7931,
      "geht": 7932,
      "itur": 7933,
      "ĠGefÃ¼hl": 7934,
      "Ġvierten": 7935,
      "Sonntag": 7936,
      "ĠFak": 7937,
      "Ġverabschie": 7938,
      "Ġkurze": 7939,
      "ĠPC": 7940,
      "ĠSP": 7941,
      "ĠHessen": 7942,
      "Ġmodernen": 7943,
      "ĠKas": 7944,
      "Zwischen": 7945,
      "ION": 7946,
      "ption": 7947,
      "ĠAnna": 7948,
      "ĠVorschlÃ¤ge": 7949,
      "Di": 7950,
      "Ben": 7951,
      "ĠAkademie": 7952,
      "abteilung": 7953,
      "ĠElektro": 7954,
      "ĠAsp": 7955,
      "ĠDamen": 7956,
      "ichtigung": 7957,
      "Ġha": 7958,
      "prÃ¼fung": 7959,
      "westlich": 7960,
      "ĠFarbe": 7961,
      "ĠOrte": 7962,
      "erte": 7963,
      "Ġergibt": 7964,
      "ĠFÃ¼nf": 7965,
      "Ġbekannten": 7966,
      "Ġbessere": 7967,
      "Ġmy": 7968,
      "ĠFarben": 7969,
      "ĠÃ¼berwiegend": 7970,
      "ffizien": 7971,
      "ws": 7972,
      "Ġeinzigen": 7973,
      "Ġeiniger": 7974,
      "leiten": 7975,
      "Ġwohn": 7976,
      "Ġbetreffend": 7977,
      "Ã¶ger": 7978,
      "hÃ¶rigen": 7979,
      "Ġgedacht": 7980,
      "HÃ¶r": 7981,
      "Ġvorgeschlagen": 7982,
      "dar": 7983,
      "ĠGru": 7984,
      "ĠAbgeordneten": 7985,
      "ĠWalter": 7986,
      "ĠLim": 7987,
      "grenzen": 7988,
      "Ġbestehenden": 7989,
      "fÃ¼hrte": 7990,
      "Ġakzep": 7991,
      "zeichnungen": 7992,
      "ĠHÃ¤user": 7993,
      "kÃ¼r": 7994,
      "ny": 7995,
      "tseite": 7996,
      "andelte": 7997,
      "ungsmittel": 7998,
      "kehrt": 7999,
      "ĠDarstellung": 8000,
      "krit": 8001,
      "ĠgeprÃ¤gt": 8002,
      "wenden": 8003,
      "meldung": 8004,
      "Ġgenerated": 8005,
      "SA": 8006,
      "Ġnutz": 8007,
      "Ġdiver": 8008,
      "ĠUngarn": 8009,
      "ĠHir": 8010,
      "ĠHÃ¤nde": 8011,
      "jdi": 8012,
      "ĠFestival": 8013,
      "Ġsech": 8014,
      "ĠZun": 8015,
      "SD": 8016,
      "brauch": 8017,
      "Ġlebte": 8018,
      "ĠFamilienname": 8019,
      "Ġerhoben": 8020,
      "rÃ¼cken": 8021,
      "Ganz": 8022,
      "kommt": 8023,
      "struktion": 8024,
      "Daher": 8025,
      "ichteten": 8026,
      "ĠHermann": 8027,
      "wahlen": 8028,
      "ĠGerÃ¤te": 8029,
      "star": 8030,
      "cup": 8031,
      "ĠAfD": 8032,
      "ĠMrd": 8033,
      "ĠVertrags": 8034,
      "ĠPlanung": 8035,
      "usen": 8036,
      "ĠArchitektur": 8037,
      "Ġsterben": 8038,
      "Ġpsych": 8039,
      "ĠSchatz": 8040,
      "liegt": 8041,
      "Sind": 8042,
      "scheidet": 8043,
      "Ġ1964": 8044,
      "Ġgesellschaft": 8045,
      "ĠHit": 8046,
      "Ġnationale": 8047,
      "Ġprivate": 8048,
      "ĠDann": 8049,
      "Ġabgesch": 8050,
      "Ġgestern": 8051,
      "Ġ52": 8052,
      "Ġhalb": 8053,
      "Teil": 8054,
      "lers": 8055,
      "schiede": 8056,
      "reuung": 8057,
      "Hat": 8058,
      "ĠTraum": 8059,
      "ĠErweiterung": 8060,
      "lÃ¶": 8061,
      "2002": 8062,
      "Ġew": 8063,
      "ĠSy": 8064,
      "oret": 8065,
      "Ġrichtige": 8066,
      "einrichtungen": 8067,
      "figur": 8068,
      "Ġlinken": 8069,
      "Ġproduziert": 8070,
      "lieder": 8071,
      "DafÃ¼r": 8072,
      "Obwohl": 8073,
      "Ġaktuelle": 8074,
      "emm": 8075,
      "ĠFalle": 8076,
      "Ġpost": 8077,
      "ĠMitteilung": 8078,
      "ĠBeschluss": 8079,
      "ĠBrenn": 8080,
      "ĠAkte": 8081,
      "ĠDeutschlands": 8082,
      "dex": 8083,
      "Ġ49": 8084,
      "Ġtoll": 8085,
      "veranst": 8086,
      "ĠAnwesen": 8087,
      "leistungs": 8088,
      "Ġschrift": 8089,
      "Ġinstall": 8090,
      "ĠBewohner": 8091,
      "ĠInseln": 8092,
      "zellen": 8093,
      "Ġaufs": 8094,
      "gÃ¤": 8095,
      "ĠBord": 8096,
      "Ġerinnern": 8097,
      "Eigen": 8098,
      "ĠProgramme": 8099,
      "bul": 8100,
      "Ġschreiben": 8101,
      "Ġ600": 8102,
      "Ġsage": 8103,
      "ĠRoh": 8104,
      "bieter": 8105,
      "ĠerfÃ¼llt": 8106,
      "ĠHerzog": 8107,
      "ĠHoffnung": 8108,
      "wege": 8109,
      "ERR": 8110,
      "Ġlegen": 8111,
      "ĠGroÃŁen": 8112,
      "ĠUmfang": 8113,
      "ĠSowjet": 8114,
      "wachung": 8115,
      "Ġzahlen": 8116,
      "ĠLinien": 8117,
      "schef": 8118,
      "atell": 8119,
      "ĠEWG": 8120,
      "ĠKoch": 8121,
      "Ġangesehen": 8122,
      "ĠNur": 8123,
      "ĠAufenthalt": 8124,
      "attform": 8125,
      "ĠJean": 8126,
      "Ġorganisiert": 8127,
      "Ġschwierig": 8128,
      "tien": 8129,
      "iness": 8130,
      "afrika": 8131,
      "ĠKop": 8132,
      "ĠOs": 8133,
      "Ġkennt": 8134,
      "ĠCollege": 8135,
      "ĠverlÃ¤nger": 8136,
      "ĠKanada": 8137,
      "gebnisse": 8138,
      "ĠDE": 8139,
      "ĠExperten": 8140,
      "Gruppe": 8141,
      "VP": 8142,
      "pret": 8143,
      "ĠUnited": 8144,
      "ĠhÃ¶chste": 8145,
      "Ġkrie": 8146,
      "einheit": 8147,
      "Ġzweimal": 8148,
      "ĠZentr": 8149,
      "Mir": 8150,
      "ĠTrÃ¤ger": 8151,
      "Ã¢": 8152,
      "Ã¶nnen": 8153,
      "Ġfestge": 8154,
      "ĠSieger": 8155,
      "wood": 8156,
      "dlich": 8157,
      "Ġsucht": 8158,
      "ĠErwerb": 8159,
      "ĠstÃ¤ndig": 8160,
      "ĠFacebook": 8161,
      "Ġkg": 8162,
      "arzt": 8163,
      "ĠMund": 8164,
      "bd": 8165,
      "ĠGebieten": 8166,
      "ĠkÃ¼nd": 8167,
      "forum": 8168,
      "Ġessen": 8169,
      "urer": 8170,
      "iefe": 8171,
      "Ġseconds": 8172,
      "Ġhinein": 8173,
      "Ġsinn": 8174,
      "Ġstabil": 8175,
      "wohnung": 8176,
      "ĠZudem": 8177,
      "Ġstra": 8178,
      "Ġchem": 8179,
      "ĠNeubau": 8180,
      "Ġbetonte": 8181,
      "Techn": 8182,
      "ĠMisch": 8183,
      "blog": 8184,
      "atin": 8185,
      "Ġunge": 8186,
      "hagen": 8187,
      "wirtschafts": 8188,
      "Ġaust": 8189,
      "ĠFranzÃ¶s": 8190,
      "erer": 8191,
      "Ġ120": 8192,
      "Ġfehlt": 8193,
      "Ġnahezu": 8194,
      "ĠVorteile": 8195,
      "Ã¤nner": 8196,
      "Zahl": 8197,
      "Sol": 8198,
      "sinn": 8199,
      "ĠFernsehen": 8200,
      "ky": 8201,
      "ĪĴ": 8202,
      "Ġvergeben": 8203,
      "ĠWur": 8204,
      "amerikanischer": 8205,
      "ĠverfÃ¼gen": 8206,
      "NA": 8207,
      "azin": 8208,
      "ĠMannschaften": 8209,
      "ĠBehinder": 8210,
      "Ã¤dagog": 8211,
      "ĠWorte": 8212,
      "ĠNationen": 8213,
      "Ġeigenes": 8214,
      "ĠFal": 8215,
      "ĠKarls": 8216,
      "klar": 8217,
      "ÅĤ": 8218,
      "ĠGewicht": 8219,
      "neu": 8220,
      "wp": 8221,
      "Ġgegangen": 8222,
      "ois": 8223,
      "Beg": 8224,
      "bieten": 8225,
      "otion": 8226,
      "deutsche": 8227,
      "Ġverteid": 8228,
      "Ġhand": 8229,
      "ĠVermÃ¶gen": 8230,
      "ĠJac": 8231,
      "uro": 8232,
      "Ġsitzen": 8233,
      "Jahrhund": 8234,
      "BA": 8235,
      "pap": 8236,
      "Ġsan": 8237,
      "iana": 8238,
      "ĠkÃ¼nstler": 8239,
      "Ġheutige": 8240,
      "ĠKonzer": 8241,
      "leistet": 8242,
      "Ã¼ÃŁ": 8243,
      "ĠStaatsanwalt": 8244,
      "Ind": 8245,
      "ĠSyr": 8246,
      "MwSt": 8247,
      "ĠMassen": 8248,
      "Ġunbedingt": 8249,
      "cycl": 8250,
      "deutschen": 8251,
      "Ġ1965": 8252,
      "Ro": 8253,
      "athl": 8254,
      "adel": 8255,
      "Ġlokalen": 8256,
      "alismus": 8257,
      "ruhe": 8258,
      "ĠUnterschied": 8259,
      "nell": 8260,
      "ĠSchaffung": 8261,
      "zon": 8262,
      "ĠMÃ¤nnern": 8263,
      "ĠSprecher": 8264,
      "Ġ46": 8265,
      "ĠFahrrad": 8266,
      "Men": 8267,
      "ĠRoy": 8268,
      "uba": 8269,
      "ĠDÃ¶r": 8270,
      "Ġeindeu": 8271,
      "ĠHÃ¶hen": 8272,
      "Programm": 8273,
      "VD": 8274,
      "kunde": 8275,
      "ĠÂ©": 8276,
      "ĠMitgliedern": 8277,
      "lleg": 8278,
      "karten": 8279,
      "gerichts": 8280,
      "icke": 8281,
      "arische": 8282,
      "werber": 8283,
      "mail": 8284,
      "ologe": 8285,
      "ĠReihen": 8286,
      "Ã¤nen": 8287,
      "itute": 8288,
      "pon": 8289,
      "empl": 8290,
      "ĠJugendliche": 8291,
      "namen": 8292,
      "ĠAR": 8293,
      "ĠCast": 8294,
      "Ġ1966": 8295,
      "paar": 8296,
      "ella": 8297,
      "Liste": 8298,
      "ĠIT": 8299,
      "ĠAnerkennung": 8300,
      "ield": 8301,
      "Ġprofit": 8302,
      "Ġeinzelne": 8303,
      "Ir": 8304,
      "Ġbesuchen": 8305,
      "ĠschlieÃŁen": 8306,
      "weiten": 8307,
      "fi": 8308,
      "ĠGang": 8309,
      "ĠGewerbe": 8310,
      "Ġzunehmend": 8311,
      "ips": 8312,
      "Ġtrug": 8313,
      "ura": 8314,
      "wr": 8315,
      "ĠLive": 8316,
      "ĠschÃ¼tzen": 8317,
      "ĠTabelle": 8318,
      "Ġschm": 8319,
      "ranten": 8320,
      "Ġgaran": 8321,
      "dauer": 8322,
      "ĠRuf": 8323,
      "ĠDrittel": 8324,
      "funktion": 8325,
      "ĠRefer": 8326,
      "systeme": 8327,
      "Ġweib": 8328,
      "ĠpersÃ¶nlichen": 8329,
      "Ġgelegt": 8330,
      "ĠAnst": 8331,
      "ettet": 8332,
      "Frei": 8333,
      "ĠEhr": 8334,
      "Ġextrem": 8335,
      "ĠKlass": 8336,
      "ĠZeich": 8337,
      "Ġbetrachtet": 8338,
      "ĠBundesrepublik": 8339,
      "Ġversp": 8340,
      "ĠGeburtstag": 8341,
      "ĠKompon": 8342,
      "Ġbisherigen": 8343,
      "spekte": 8344,
      "ĠDÃ©": 8345,
      "ĠVogel": 8346,
      "Ġ1946": 8347,
      "swert": 8348,
      "ĠZugriffe": 8349,
      "fertigt": 8350,
      "enkt": 8351,
      "ĠEntwurf": 8352,
      "ĠMethoden": 8353,
      "ĠUntersuchungen": 8354,
      "ĠmÃ¶glichen": 8355,
      "Ġ1963": 8356,
      "Med": 8357,
      "ĠGeÃ¤ndert": 8358,
      "ĠÃ¶stlich": 8359,
      "ĠKÃ¼hl": 8360,
      "ĠParty": 8361,
      "ĠGrand": 8362,
      "stÃ¤tten": 8363,
      "ĠKonst": 8364,
      "lÃ¤ndische": 8365,
      "ĠAns": 8366,
      "Ġwestlich": 8367,
      "ĠGrÃ¼nde": 8368,
      "IL": 8369,
      "Ġmittels": 8370,
      "Mittwoch": 8371,
      "ĠPhase": 8372,
      "ĠLohn": 8373,
      "Ġschwed": 8374,
      "ĠEnglisch": 8375,
      "Ġsystem": 8376,
      "Ġegal": 8377,
      "ĠSchool": 8378,
      "ĠGermany": 8379,
      "Ġerweitert": 8380,
      "Ġbritische": 8381,
      "Ġpf": 8382,
      "Ġvoller": 8383,
      "Ġregionalen": 8384,
      "ĠAlbert": 8385,
      "Ġmu": 8386,
      "ĠSpielzeit": 8387,
      "spir": 8388,
      "irche": 8389,
      "Car": 8390,
      "lla": 8391,
      "ĠgehÃ¶rten": 8392,
      "ĠHilfs": 8393,
      "ĠPress": 8394,
      "ĠMeeres": 8395,
      "Ġ51": 8396,
      "ĠNaturschutz": 8397,
      "JÃ¤hrigen": 8398,
      "gh": 8399,
      "mack": 8400,
      "Kap": 8401,
      "ĠAustralien": 8402,
      "ration": 8403,
      "ĠlÃ¶": 8404,
      "ĠZucker": 8405,
      "Ġ1962": 8406,
      "wÃ¤l": 8407,
      "kep": 8408,
      "SÃ¼d": 8409,
      "hmen": 8410,
      "ĠRechtsvorschriften": 8411,
      "ĠSchwerpunkt": 8412,
      "Ġerstellt": 8413,
      "riebs": 8414,
      "ĠBlumen": 8415,
      "ĠAlkohol": 8416,
      "ĠWay": 8417,
      "ografie": 8418,
      "Ok": 8419,
      "ĠPlÃ¤ne": 8420,
      "ĠFriedhof": 8421,
      "Ġ1961": 8422,
      "ĠProtokoll": 8423,
      "Ġfalsch": 8424,
      "rÃ¼stung": 8425,
      "ĠWett": 8426,
      "ĠStrategie": 8427,
      "ĠÃ¶rt": 8428,
      "ĠGeschÃ¤ftsfÃ¼hrer": 8429,
      "ĠMoskau": 8430,
      "Ġvorzu": 8431,
      "ĠTeuf": 8432,
      "ĠLÃ¶sungen": 8433,
      "Ã¤ck": 8434,
      "ĠVilla": 8435,
      "isa": 8436,
      "geschÃ¤ft": 8437,
      "ĠberÃ¼cksichtigt": 8438,
      "ĠRisiko": 8439,
      "Ġmachst": 8440,
      "Ġkurzen": 8441,
      "Ġkost": 8442,
      "ĠfÃ¼hrten": 8443,
      "ausbildung": 8444,
      "astrop": 8445,
      "ĠLy": 8446,
      "Ġ54": 8447,
      "hÃ¶hung": 8448,
      "ĠBir": 8449,
      "ĠSchnitt": 8450,
      "Ġeinheit": 8451,
      "ugh": 8452,
      "Ġeingeb": 8453,
      "ĠEvangel": 8454,
      "fÃ¼hrungen": 8455,
      "ĠVarian": 8456,
      "otoren": 8457,
      "Ġlegt": 8458,
      "ĠBuchst": 8459,
      "ĠFla": 8460,
      "Viel": 8461,
      "perrt": 8462,
      "etzter": 8463,
      "Ġzugunsten": 8464,
      "Ġfinanziellen": 8465,
      "ĠAufmerksam": 8466,
      "ĠFertig": 8467,
      "Ã±": 8468,
      "Ġaufgestellt": 8469,
      "ĠJesus": 8470,
      "furter": 8471,
      "ĠVorgÃ¤nger": 8472,
      "bewegung": 8473,
      "ĠMindest": 8474,
      "wertet": 8475,
      "ĠVorbereitung": 8476,
      "ĠDoch": 8477,
      "ufo": 8478,
      "ĠAnnahme": 8479,
      "Ġuntersch": 8480,
      "ĠArtikels": 8481,
      "rÃ¼ckt": 8482,
      "ĠRechnung": 8483,
      "ĠStrecken": 8484,
      "Ġbewusst": 8485,
      "ĠPflicht": 8486,
      "tn": 8487,
      "ĠBedarf": 8488,
      "weich": 8489,
      "ĠKaffee": 8490,
      "hat": 8491,
      "ords": 8492,
      "eiche": 8493,
      "Ã¤fts": 8494,
      "Ġbo": 8495,
      "ĠOriginal": 8496,
      "Ġversuchte": 8497,
      "ĠÃ¶ffnen": 8498,
      "Ġ53": 8499,
      "ĠKlim": 8500,
      "tragung": 8501,
      "wel": 8502,
      "Ã¼mmer": 8503,
      "ĠVerlag": 8504,
      "celona": 8505,
      "ĠStation": 8506,
      "essel": 8507,
      "ĠEingang": 8508,
      "ĠverlÃ¤uft": 8509,
      "estern": 8510,
      "App": 8511,
      "ĠgeÃ¶ffnet": 8512,
      "arakter": 8513,
      "ĠPartie": 8514,
      "gesp": 8515,
      "ĠStudio": 8516,
      "ĠAktien": 8517,
      "rÃ¤ch": 8518,
      "ĠLast": 8519,
      "uliert": 8520,
      "ĠTher": 8521,
      "ĠFÃ¤lle": 8522,
      "ohnt": 8523,
      "ĠKohle": 8524,
      "ĠGÃ¶tt": 8525,
      "ĠZusatz": 8526,
      "ĠRiver": 8527,
      "maÃŁen": 8528,
      "ĠGolf": 8529,
      "2003": 8530,
      "baus": 8531,
      "udes": 8532,
      "Ã¤ischer": 8533,
      "kat": 8534,
      "ĠNiederlande": 8535,
      "Ġschwarz": 8536,
      "Ġhilft": 8537,
      "ĠIsland": 8538,
      "Ġfinde": 8539,
      "sg": 8540,
      "ĠTrend": 8541,
      "ĠprÃ¤sentiert": 8542,
      "ĠFarb": 8543,
      "Ġokay": 8544,
      "Ġnamens": 8545,
      "Ġsin": 8546,
      "Ġverste": 8547,
      "ĠWed": 8548,
      "ĠAsyl": 8549,
      "ĠHohen": 8550,
      "ĠmaÃŁ": 8551,
      "Ġbelegte": 8552,
      "Ġverurteilt": 8553,
      "kÃ¶rper": 8554,
      "Ġverliehen": 8555,
      "Ġherunter": 8556,
      "ehme": 8557,
      "Ġfestgestellt": 8558,
      "wan": 8559,
      "ĠOrgel": 8560,
      "ĠPau": 8561,
      "Ġleider": 8562,
      "ingung": 8563,
      "Ġverlieren": 8564,
      "ĠausdrÃ¼ck": 8565,
      "atischen": 8566,
      "ĠThr": 8567,
      "ĠAustausch": 8568,
      "rinken": 8569,
      "Nie": 8570,
      "itor": 8571,
      "ĠLeon": 8572,
      "ideo": 8573,
      "abilitÃ¤t": 8574,
      "Ġbewegen": 8575,
      "Ġged": 8576,
      "Ġunbe": 8577,
      "ays": 8578,
      "ĠBanken": 8579,
      "wirkung": 8580,
      "Richt": 8581,
      "ĠVaters": 8582,
      "âĢĺ": 8583,
      "Ġhoher": 8584,
      "Â©": 8585,
      "Ġ;": 8586,
      "formationen": 8587,
      "konferenz": 8588,
      "Ġschneller": 8589,
      "ender": 8590,
      "teils": 8591,
      "ĠFlÃ¤chen": 8592,
      "telligen": 8593,
      "ĠFreizeit": 8594,
      "Ġholen": 8595,
      "obby": 8596,
      "mitglieder": 8597,
      "reform": 8598,
      "Ġdargestellt": 8599,
      "werben": 8600,
      "ffekt": 8601,
      "Ġsport": 8602,
      "aket": 8603,
      "riz": 8604,
      "Ġbean": 8605,
      "spunkt": 8606,
      "Ġsolcher": 8607,
      "ĠUrsprung": 8608,
      "Stud": 8609,
      "eiteten": 8610,
      "Eben": 8611,
      "uplo": 8612,
      "Ã¶stlichen": 8613,
      "Sehr": 8614,
      "Ġvorgelegt": 8615,
      "Ġ1958": 8616,
      "Team": 8617,
      "ĠBeschwerde": 8618,
      "ĠEst": 8619,
      "ĠMeisterschaft": 8620,
      "%)": 8621,
      "Ġmeint": 8622,
      "Ã¼te": 8623,
      "ĠLandschaft": 8624,
      "Ġindustrie": 8625,
      "ĠReaktion": 8626,
      "bilder": 8627,
      "klusive": 8628,
      "knÃ¼": 8629,
      "ĠstÃ¼r": 8630,
      "ĠKrimin": 8631,
      "ĠIll": 8632,
      "ĠForst": 8633,
      "ĠKongress": 8634,
      "andte": 8635,
      "ĠauÃŁen": 8636,
      "istan": 8637,
      "ĠerfÃ¼llen": 8638,
      "Kurz": 8639,
      "onien": 8640,
      "afel": 8641,
      "kas": 8642,
      "Ġkan": 8643,
      "Ġregistr": 8644,
      "Ã¼nde": 8645,
      "Ko": 8646,
      "quar": 8647,
      "vereins": 8648,
      "zwe": 8649,
      "Ġdran": 8650,
      "nehmern": 8651,
      "sektor": 8652,
      "ĠMauer": 8653,
      "iki": 8654,
      "kunfts": 8655,
      "ĠMarkus": 8656,
      "ĠNachricht": 8657,
      "Ġinteressiert": 8658,
      "ĠNav": 8659,
      "ssen": 8660,
      "ela": 8661,
      "Ġfehlen": 8662,
      "ĠmÃ¤nn": 8663,
      "ausschusses": 8664,
      "Ġwolle": 8665,
      "management": 8666,
      "teile": 8667,
      "ĠVerstÃ¤nd": 8668,
      "endorf": 8669,
      "ĠGab": 8670,
      "ĠunabhÃ¤ngig": 8671,
      "Ohne": 8672,
      "Ġangesichts": 8673,
      "ĠInternationalen": 8674,
      "PS": 8675,
      "brÃ¼cke": 8676,
      "1994": 8677,
      "gentin": 8678,
      "Ġblieben": 8679,
      "Ġgere": 8680,
      "cb": 8681,
      "ĠVic": 8682,
      "Sa": 8683,
      "leun": 8684,
      "ĠtÃ¶ten": 8685,
      "ĠTraining": 8686,
      "isierten": 8687,
      "ĠArbeitsmarkt": 8688,
      "ĠStich": 8689,
      "________": 8690,
      "uther": 8691,
      "anzer": 8692,
      "Ã¤cher": 8693,
      "ĠAbstimmung": 8694,
      "ĠlÃ¤nd": 8695,
      "ĠbefÃ¼r": 8696,
      "Ġprofession": 8697,
      "Ġsiehe": 8698,
      "rollen": 8699,
      "ĠAuffassung": 8700,
      "ĠQuer": 8701,
      "ĠAufmerksamkeit": 8702,
      "ĠbenÃ¶tigt": 8703,
      "Ġdeiner": 8704,
      "ĠGeneration": 8705,
      "ĠOffiz": 8706,
      "Ġ1948": 8707,
      "griffen": 8708,
      "ĠUnabhÃ¤ng": 8709,
      "ĠUkra": 8710,
      "ĠÃ¼berzeugt": 8711,
      "ĠOpp": 8712,
      "ĠInstitutionen": 8713,
      "Lo": 8714,
      "ĠKooperation": 8715,
      "Bar": 8716,
      "ĠKonzern": 8717,
      "hias": 8718,
      "sweise": 8719,
      "Ġwuchs": 8720,
      "reichend": 8721,
      "Etw": 8722,
      "tÃ¤u": 8723,
      "ĠFri": 8724,
      "Mitglied": 8725,
      "ĠgenieÃŁen": 8726,
      "ĠSystems": 8727,
      "Ġgenauso": 8728,
      "ems": 8729,
      "cz": 8730,
      "ĠZeitschrift": 8731,
      "kar": 8732,
      "Ġehemaliger": 8733,
      "ĠErzb": 8734,
      "ĠMail": 8735,
      "Ġetc": 8736,
      "ĠSemin": 8737,
      "ĠEuch": 8738,
      "Aufgrund": 8739,
      "Ġbauen": 8740,
      "wies": 8741,
      "Ġmachten": 8742,
      "ĠâĪĴ": 8743,
      "kunst": 8744,
      "Ġleitete": 8745,
      "ĠBesonder": 8746,
      "ĠPremier": 8747,
      "zeitung": 8748,
      "ĠKil": 8749,
      "ĠKos": 8750,
      "ĠErÃ¶ffnung": 8751,
      "Ġwestlichen": 8752,
      "ĠFlucht": 8753,
      "Ġhttps": 8754,
      "Ġpromov": 8755,
      "ĠNic": 8756,
      "GB": 8757,
      "Ġ800": 8758,
      "ĠSouth": 8759,
      "Per": 8760,
      "immobili": 8761,
      "jor": 8762,
      "rÃ¶": 8763,
      "Ġdeinem": 8764,
      "ĠJungs": 8765,
      "reckt": 8766,
      "ĠBeschÃ¤ftigungs": 8767,
      "Ġoffenen": 8768,
      "aufrufe": 8769,
      "ĠKeller": 8770,
      "ĠFlugzeug": 8771,
      "ĠKart": 8772,
      "fordern": 8773,
      "ĠhÃ¤ngt": 8774,
      "Ġ1956": 8775,
      "ĠHard": 8776,
      "ĠEN": 8777,
      "gliedert": 8778,
      "rh": 8779,
      "EB": 8780,
      "Ã´": 8781,
      "ĠBewertung": 8782,
      "SchlieÃŁlich": 8783,
      "ĠBist": 8784,
      "anner": 8785,
      "Ġ1949": 8786,
      "ĠIsl": 8787,
      "ĠMas": 8788,
      "zten": 8789,
      "MÃ¤r": 8790,
      "Ġbegeister": 8791,
      "Ġwirkt": 8792,
      "ĠVÃ¶lker": 8793,
      "ody": 8794,
      "Ġkleines": 8795,
      "ĠGitar": 8796,
      "ĠFreundin": 8797,
      "Join": 8798,
      "bro": 8799,
      "ĠSab": 8800,
      "ĠdrauÃŁen": 8801,
      "witter": 8802,
      "ĠgegenwÃ¤r": 8803,
      "ĠIran": 8804,
      "kehren": 8805,
      "ĠTarif": 8806,
      "stoffen": 8807,
      "Ġentsteht": 8808,
      "Musik": 8809,
      "Ġteilnehmen": 8810,
      "Ġ47": 8811,
      "Ġgegensei": 8812,
      "ĠRegie": 8813,
      "ĠEinkauf": 8814,
      "Ġrad": 8815,
      "ĠTab": 8816,
      "elbe": 8817,
      "Ġgemeinschaft": 8818,
      "ĠKlub": 8819,
      "Ġstartete": 8820,
      "ĠSturm": 8821,
      "ĠSchiffe": 8822,
      "Ne": 8823,
      "ĠTerror": 8824,
      "ĠDebatte": 8825,
      "ĠAusgang": 8826,
      "ĠWiderstand": 8827,
      "mension": 8828,
      "Ġwann": 8829,
      "ĠschÃ¶ne": 8830,
      "reif": 8831,
      "ahrt": 8832,
      "schuÃŁ": 8833,
      "Ġscheiter": 8834,
      "ĠSchles": 8835,
      "owski": 8836,
      "ĠHÃ¶chst": 8837,
      "jt": 8838,
      "UNGEN": 8839,
      "ĠGlo": 8840,
      "ĠPlay": 8841,
      "Juni": 8842,
      "ĠAutoren": 8843,
      "ĠBerichter": 8844,
      "nh": 8845,
      "ĠsÃ¼dlichen": 8846,
      "Ġgesund": 8847,
      "nitten": 8848,
      "Ġstill": 8849,
      "ĠAuftritt": 8850,
      "unnel": 8851,
      "ĠpersÃ¶nlich": 8852,
      "Ġoper": 8853,
      "ĠÃ¤uÃŁ": 8854,
      "Danach": 8855,
      "Fax": 8856,
      "endar": 8857,
      "bran": 8858,
      "etts": 8859,
      "ĠAuge": 8860,
      "Ġ1952": 8861,
      "partement": 8862,
      "Ġrichtigen": 8863,
      "ĠplÃ¶tzlich": 8864,
      "Ã¶sterreich": 8865,
      "Ġwirkte": 8866,
      "Ġchrist": 8867,
      "ĠDeck": 8868,
      "ĠBevÃ¶lkerungs": 8869,
      "ĠSebastian": 8870,
      "ĠFass": 8871,
      "Ġehe": 8872,
      "ĠMi": 8873,
      "bahnhof": 8874,
      "ugend": 8875,
      "Ġlautet": 8876,
      "Peter": 8877,
      "sur": 8878,
      "stige": 8879,
      "Ġdor": 8880,
      "Wohn": 8881,
      "ĠZahn": 8882,
      "rein": 8883,
      "alisiert": 8884,
      "Ġhc": 8885,
      "Ġangemessen": 8886,
      "Ġsorgt": 8887,
      "iale": 8888,
      "antin": 8889,
      "Ġfinanzielle": 8890,
      "Met": 8891,
      "ĠlieÃŁen": 8892,
      "zesse": 8893,
      "quote": 8894,
      "Ġreichen": 8895,
      "ĠSeiteaufrufe": 8896,
      "zell": 8897,
      "ĠSei": 8898,
      "Ġgehabt": 8899,
      "OK": 8900,
      "Ġtrain": 8901,
      "qualitÃ¤t": 8902,
      "sti": 8903,
      "ĠAK": 8904,
      "Ġhow": 8905,
      "agner": 8906,
      "Ġverschiedener": 8907,
      "Ġverboten": 8908,
      "Ġretten": 8909,
      "ĠDun": 8910,
      "ĠIndust": 8911,
      "ĠWÃ¤r": 8912,
      "ĠHamburger": 8913,
      "Ġverringer": 8914,
      "ĠFein": 8915,
      "dach": 8916,
      "Hel": 8917,
      "ĠWerner": 8918,
      "MS": 8919,
      "Ġausgetragen": 8920,
      "ĠBeschluÃŁ": 8921,
      "ĠInnenstadt": 8922,
      "barer": 8923,
      "Ġjene": 8924,
      "bacher": 8925,
      "izierten": 8926,
      "ĠUnternehmer": 8927,
      "Web": 8928,
      "Ġbesitzen": 8929,
      "ĠverstÃ¤rkt": 8930,
      "Ġwes": 8931,
      "Ġallgemeine": 8932,
      "ĠCa": 8933,
      "ĠhÃ¶here": 8934,
      "ĠPrior": 8935,
      "Ġgleichnam": 8936,
      "Ġ1943": 8937,
      "Ġveranst": 8938,
      "ĠMol": 8939,
      "hod": 8940,
      "ĠBlock": 8941,
      "Ġaufgebaut": 8942,
      "ĠVerz": 8943,
      "Ġmodern": 8944,
      "ĠQualitÃ¤ts": 8945,
      "Ġant": 8946,
      "nummer": 8947,
      "hockey": 8948,
      "ĠMarc": 8949,
      "ĠVoraussetzungen": 8950,
      "FC": 8951,
      "ezif": 8952,
      "ĠNotwend": 8953,
      "ĠFle": 8954,
      "Ġunseres": 8955,
      "Joined": 8956,
      "ĠAuseinander": 8957,
      "pm": 8958,
      "fir": 8959,
      "Politik": 8960,
      "ĠHauses": 8961,
      "ĠÃ¶sterreichischen": 8962,
      "ĠMexiko": 8963,
      "ĠOff": 8964,
      "ĠYou": 8965,
      "Ġgebildet": 8966,
      "Ġ!": 8967,
      "AND": 8968,
      "ĠLinks": 8969,
      "Ġti": 8970,
      "lim": 8971,
      "ĠGegend": 8972,
      "ĠFront": 8973,
      "mÃ¤ch": 8974,
      "ĠAktionen": 8975,
      "asser": 8976,
      "Kinder": 8977,
      "sprecher": 8978,
      "ioren": 8979,
      "Ġgutes": 8980,
      "Zusammen": 8981,
      "ipe": 8982,
      "Ã¡n": 8983,
      "bungen": 8984,
      "rinzip": 8985,
      "zeichneten": 8986,
      "Ġstruktur": 8987,
      "alifornien": 8988,
      "Ġsh": 8989,
      "Ã¼mm": 8990,
      "content": 8991,
      "Ġbeendet": 8992,
      "Ġuntersucht": 8993,
      "ĠhÃ¶heren": 8994,
      "Ġecht": 8995,
      "ĠFunktionen": 8996,
      "Wieso": 8997,
      "ĠCent": 8998,
      "Ġinkl": 8999,
      "ĠzustÃ¤ndigen": 9000,
      "Ġgearbeitet": 9001,
      "auten": 9002,
      "Ġgefragt": 9003,
      "wirken": 9004,
      "Ġ1942": 9005,
      "ĠMÃ¼nchner": 9006,
      "Johann": 9007,
      "Ġverkaufen": 9008,
      "Ġopti": 9009,
      "ĠÃĦnderungs": 9010,
      "aufnahme": 9011,
      "Best": 9012,
      "ronom": 9013,
      "Ġalleine": 9014,
      "ĠGÃ¼n": 9015,
      "Ġlebten": 9016,
      "Ġerleich": 9017,
      "ĠNeuen": 9018,
      "ĠBÃ¶r": 9019,
      "ĠGattung": 9020,
      "ĠSeeh": 9021,
      "mosphÃ¤re": 9022,
      "gischen": 9023,
      "ĠlÃ¶sen": 9024,
      "MU": 9025,
      "Ġvorgestellt": 9026,
      "lu": 9027,
      "verteid": 9028,
      "gerÃ¤te": 9029,
      "Ġruhig": 9030,
      "jahres": 9031,
      "Ġ1941": 9032,
      "ĠVielzahl": 9033,
      "ĠTief": 9034,
      "ĠKiel": 9035,
      "ĠangekÃ¼nd": 9036,
      "ĠArg": 9037,
      "Verhandlungen": 9038,
      "ominiert": 9039,
      "hÃ¤ltnisse": 9040,
      "Ġverbreitet": 9041,
      "ĠZweit": 9042,
      "ektar": 9043,
      "ĠBeim": 9044,
      "ĠGeschwindigkeit": 9045,
      "ĠBlatt": 9046,
      "ĠAfrika": 9047,
      "ĠMut": 9048,
      "III": 9049,
      "spf": 9050,
      "ĠEh": 9051,
      "Mr": 9052,
      "ĠDatei": 9053,
      "fabrik": 9054,
      "MT": 9055,
      "Ġverstanden": 9056,
      "ĠFlÃ¼chtlinge": 9057,
      "Ã¼tter": 9058,
      "ĠMinder": 9059,
      "ĠSalzburg": 9060,
      "ĠHeer": 9061,
      "ĠHon": 9062,
      "schlagen": 9063,
      "ween": 9064,
      "Ġenglischen": 9065,
      "Tut": 9066,
      "Ġ1959": 9067,
      "schnitts": 9068,
      "Ġgeblieben": 9069,
      "oppelt": 9070,
      "Ġanti": 9071,
      "ĠMaster": 9072,
      "Ġos": 9073,
      "ĠBenutzer": 9074,
      "Ġhart": 9075,
      "Ġerfolgen": 9076,
      "wirt": 9077,
      "ĠkÃ¤mpfen": 9078,
      "bogen": 9079,
      "Ġ1957": 9080,
      "Sag": 9081,
      "umin": 9082,
      "ĠPfarrer": 9083,
      "ĠGebrauch": 9084,
      "Ġermittelt": 9085,
      "Ġbeendete": 9086,
      "ÄĤ": 9087,
      "ĠJagd": 9088,
      "ĠKatalog": 9089,
      "Seite": 9090,
      "enten": 9091,
      "ĠmÃ¼ssten": 9092,
      "Post": 9093,
      "service": 9094,
      "Ġweite": 9095,
      "weil": 9096,
      "ĠRegisseur": 9097,
      "Hil": 9098,
      "Ġanhand": 9099,
      "ĠÃĦgyp": 9100,
      "Ġantw": 9101,
      "ĠSorgen": 9102,
      "tiere": 9103,
      "Ġniemals": 9104,
      "ĠMadrid": 9105,
      "ĠDenn": 9106,
      "reide": 9107,
      "Dav": 9108,
      "fÃ¤hig": 9109,
      "fÃ¼hrungs": 9110,
      "Ġvermeiden": 9111,
      "ĠAnschlieÃŁend": 9112,
      "endeten": 9113,
      "ĠRekord": 9114,
      "ĠNetzwerk": 9115,
      "Ġerhielten": 9116,
      "ĠdÃ¤n": 9117,
      "euert": 9118,
      "Ġehren": 9119,
      "mag": 9120,
      "tÃ¤": 9121,
      "ĠDomin": 9122,
      "ĠSpÃ¤ter": 9123,
      "gestaltung": 9124,
      "ĠBeitrÃ¤ge": 9125,
      "ĠVan": 9126,
      "hÃ¼": 9127,
      "lÃ¤sslich": 9128,
      "ĠLandtag": 9129,
      "behÃ¶rde": 9130,
      "inc": 9131,
      "ĠDiesel": 9132,
      "Ġgelungen": 9133,
      "ĠSysteme": 9134,
      "Con": 9135,
      "ati": 9136,
      "Äģ": 9137,
      "spruchs": 9138,
      "Kommission": 9139,
      "sprozess": 9140,
      "ĠAspekte": 9141,
      "manns": 9142,
      "ĠNÃ¼rnberg": 9143,
      "ĠBoot": 9144,
      "git": 9145,
      "ĠEinkommen": 9146,
      "Ġmach": 9147,
      "stehenden": 9148,
      "eise": 9149,
      "ĠMur": 9150,
      "ĠfÃ¤hrt": 9151,
      "iano": 9152,
      "Ġdiesmal": 9153,
      "ĠKass": 9154,
      "wÃ¼rfe": 9155,
      "ĠFeder": 9156,
      "Ġberu": 9157,
      "formation": 9158,
      "Ġempfohlen": 9159,
      "Ġ56": 9160,
      "ĠSorge": 9161,
      "ĠLandtags": 9162,
      "ĠMaler": 9163,
      "ÃŁig": 9164,
      "ĠQuart": 9165,
      "ĠEck": 9166,
      "Ġkomplex": 9167,
      "ĠElemente": 9168,
      "ĠQuelle": 9169,
      "tist": 9170,
      "Ġetabl": 9171,
      "ĠKlinik": 9172,
      "ĠBeweg": 9173,
      "ologen": 9174,
      "ĠerhÃ¤ltlich": 9175,
      "ĠGerÃ¤t": 9176,
      "mess": 9177,
      "entlich": 9178,
      "ĠGenehmigung": 9179,
      "Ġsite": 9180,
      "ĠMos": 9181,
      "ĠArbeitsplatz": 9182,
      "ĠNorwegen": 9183,
      "ĠNiederlage": 9184,
      "viel": 9185,
      "ĠwÃ¤r": 9186,
      "echselt": 9187,
      "pool": 9188,
      "Ziel": 9189,
      "werden": 9190,
      "Ġvoe": 9191,
      "Genau": 9192,
      "MW": 9193,
      "San": 9194,
      "ĠRec": 9195,
      "ĠDemokratie": 9196,
      "ĠKÃ¼ste": 9197,
      "ĠABI": 9198,
      "deln": 9199,
      "dif": 9200,
      "timeter": 9201,
      "ocation": 9202,
      "ĠFehl": 9203,
      "istent": 9204,
      "ĠJakob": 9205,
      "instrum": 9206,
      "ĠmÃ¶gliche": 9207,
      "ĠBrÃ¼der": 9208,
      "ĠNiederlanden": 9209,
      "opul": 9210,
      "nl": 9211,
      "ĠLeiden": 9212,
      "ammte": 9213,
      "Ġreligi": 9214,
      "Ã¿Ã¿Ã¿Ã¿": 9215,
      "mes": 9216,
      "schloss": 9217,
      "phan": 9218,
      "ĠEindruck": 9219,
      "ĠheiÃŁen": 9220,
      "Ġerheblich": 9221,
      "tragt": 9222,
      "erd": 9223,
      "Ġstimm": 9224,
      "ĠBart": 9225,
      "ĠDeleg": 9226,
      "ĠLieder": 9227,
      "rÃ¤t": 9228,
      "Ġries": 9229,
      "artig": 9230,
      "ĠFax": 9231,
      "Ġvorgenommen": 9232,
      "achim": 9233,
      "ĠMarke": 9234,
      "ĠWÃ¤hrungs": 9235,
      "ĠSchick": 9236,
      "Ġmeinte": 9237,
      "1998": 9238,
      "Ġendete": 9239,
      "ĠbemÃ¼": 9240,
      "rc": 9241,
      "WÃ¼rttemberg": 9242,
      "ĠbeschÃ¤d": 9243,
      "brand": 9244,
      "igital": 9245,
      "ĠbezÃ¼glich": 9246,
      "Ġforderte": 9247,
      "ĠKombination": 9248,
      "ĠzukÃ¼nf": 9249,
      "ktions": 9250,
      "Ġfalls": 9251,
      "ĠAv": 9252,
      "ĠSÃ¶hne": 9253,
      "ĠBesatz": 9254,
      "Ġrum": 9255,
      "SchÃ¶n": 9256,
      "ĠVereine": 9257,
      "ĠFranken": 9258,
      "ĠVertrauen": 9259,
      "Ġangep": 9260,
      "nische": 9261,
      "ĠSchriftsteller": 9262,
      "Ġcan": 9263,
      "Ġerzielt": 9264,
      "ĠBarcelona": 9265,
      "ĠAutomobil": 9266,
      "ĠAnhÃ¤nger": 9267,
      "Rech": 9268,
      "IB": 9269,
      "FB": 9270,
      "sky": 9271,
      "flÃ¼gel": 9272,
      "ĠMittelmeer": 9273,
      "iction": 9274,
      "enzt": 9275,
      "Ġsolle": 9276,
      "Ġeinzigar": 9277,
      "azitÃ¤t": 9278,
      "finanz": 9279,
      "ĠglÃ¼cklich": 9280,
      "Gott": 9281,
      "antas": 9282,
      "fÃ¼gt": 9283,
      "Ġerbaut": 9284,
      "ĠKamp": 9285,
      "ji": 9286,
      "abkommen": 9287,
      "ĠLeid": 9288,
      "ĠGrÃ¤": 9289,
      "ufs": 9290,
      "ĠRem": 9291,
      "ĠSchmidt": 9292,
      "Nieder": 9293,
      "ouverne": 9294,
      "ĠerlÃ¤uter": 9295,
      "ehren": 9296,
      "Kar": 9297,
      "Ġcomp": 9298,
      "ĠModer": 9299,
      "ĠStrukturen": 9300,
      "Ġwodurch": 9301,
      "Ġgu": 9302,
      "afÃ©": 9303,
      "ĠPersÃ¶n": 9304,
      "ordnet": 9305,
      "ppt": 9306,
      "Ġveran": 9307,
      "klei": 9308,
      "ray": 9309,
      "ject": 9310,
      "Sep": 9311,
      "gendes": 9312,
[...]
